[PAD] 35022
[unused0] 35021
[unused1] 35020
[unused2] 35019
[unused3] 35018
[unused4] 35017
[unused5] 35016
[unused6] 35015
[unused7] 35014
[unused8] 35013
[unused9] 35012
[unused10] 35011
[unused11] 35010
[unused12] 35009
[unused13] 35008
[unused14] 35007
[unused15] 35006
[unused16] 35005
[unused17] 35004
[unused18] 35003
[unused19] 35002
[unused20] 35001
[unused21] 35000
[unused22] 34999
[unused23] 34998
[unused24] 34997
[unused25] 34996
[unused26] 34995
[unused27] 34994
[unused28] 34993
[unused29] 34992
[unused30] 34991
[unused31] 34990
[unused32] 34989
[unused33] 34988
[unused34] 34987
[unused35] 34986
[unused36] 34985
[unused37] 34984
[unused38] 34983
[unused39] 34982
[unused40] 34981
[unused41] 34980
[unused42] 34979
[unused43] 34978
[unused44] 34977
[unused45] 34976
[unused46] 34975
[unused47] 34974
[unused48] 34973
[unused49] 34972
[unused50] 34971
[unused51] 34970
[unused52] 34969
[unused53] 34968
[unused54] 34967
[unused55] 34966
[unused56] 34965
[unused57] 34964
[unused58] 34963
[unused59] 34962
[unused60] 34961
[unused61] 34960
[unused62] 34959
[unused63] 34958
[unused64] 34957
[unused65] 34956
[unused66] 34955
[unused67] 34954
[unused68] 34953
[unused69] 34952
[unused70] 34951
[unused71] 34950
[unused72] 34949
[unused73] 34948
[unused74] 34947
[unused75] 34946
[unused76] 34945
[unused77] 34944
[unused78] 34943
[unused79] 34942
[unused80] 34941
[unused81] 34940
[unused82] 34939
[unused83] 34938
[unused84] 34937
[unused85] 34936
[unused86] 34935
[unused87] 34934
[unused88] 34933
[unused89] 34932
[unused90] 34931
[unused91] 34930
[unused92] 34929
[unused93] 34928
[unused94] 34927
[unused95] 34926
[unused96] 34925
[unused97] 34924
[unused98] 34923
[UNK] 34922
[CLS] 34921
[SEP] 34920
[MASK] 34919
[unused99] 34918
[unused100] 34917
[unused101] 34916
[unused102] 34915
[unused103] 34914
[unused104] 34913
[unused105] 34912
[unused106] 34911
[unused107] 34910
[unused108] 34909
[unused109] 34908
[unused110] 34907
[unused111] 34906
[unused112] 34905
[unused113] 34904
[unused114] 34903
[unused115] 34902
[unused116] 34901
[unused117] 34900
[unused118] 34899
[unused119] 34898
[unused120] 34897
[unused121] 34896
[unused122] 34895
[unused123] 34894
[unused124] 34893
[unused125] 34892
[unused126] 34891
[unused127] 34890
[unused128] 34889
[unused129] 34888
[unused130] 34887
[unused131] 34886
[unused132] 34885
[unused133] 34884
[unused134] 34883
[unused135] 34882
[unused136] 34881
[unused137] 34880
[unused138] 34879
[unused139] 34878
[unused140] 34877
[unused141] 34876
[unused142] 34875
[unused143] 34874
[unused144] 34873
[unused145] 34872
[unused146] 34871
[unused147] 34870
[unused148] 34869
[unused149] 34868
[unused150] 34867
[unused151] 34866
[unused152] 34865
[unused153] 34864
[unused154] 34863
[unused155] 34862
[unused156] 34861
[unused157] 34860
[unused158] 34859
[unused159] 34858
[unused160] 34857
[unused161] 34856
[unused162] 34855
[unused163] 34854
[unused164] 34853
[unused165] 34852
[unused166] 34851
[unused167] 34850
[unused168] 34849
[unused169] 34848
[unused170] 34847
[unused171] 34846
[unused172] 34845
[unused173] 34844
[unused174] 34843
[unused175] 34842
[unused176] 34841
[unused177] 34840
[unused178] 34839
[unused179] 34838
[unused180] 34837
[unused181] 34836
[unused182] 34835
[unused183] 34834
[unused184] 34833
[unused185] 34832
[unused186] 34831
[unused187] 34830
[unused188] 34829
[unused189] 34828
[unused190] 34827
[unused191] 34826
[unused192] 34825
[unused193] 34824
[unused194] 34823
[unused195] 34822
[unused196] 34821
[unused197] 34820
[unused198] 34819
[unused199] 34818
[unused200] 34817
[unused201] 34816
[unused202] 34815
[unused203] 34814
[unused204] 34813
[unused205] 34812
[unused206] 34811
[unused207] 34810
[unused208] 34809
[unused209] 34808
[unused210] 34807
[unused211] 34806
[unused212] 34805
[unused213] 34804
[unused214] 34803
[unused215] 34802
[unused216] 34801
[unused217] 34800
[unused218] 34799
[unused219] 34798
[unused220] 34797
[unused221] 34796
[unused222] 34795
[unused223] 34794
[unused224] 34793
[unused225] 34792
[unused226] 34791
[unused227] 34790
[unused228] 34789
[unused229] 34788
[unused230] 34787
[unused231] 34786
[unused232] 34785
[unused233] 34784
[unused234] 34783
[unused235] 34782
[unused236] 34781
[unused237] 34780
[unused238] 34779
[unused239] 34778
[unused240] 34777
[unused241] 34776
[unused242] 34775
[unused243] 34774
[unused244] 34773
[unused245] 34772
[unused246] 34771
[unused247] 34770
[unused248] 34769
[unused249] 34768
[unused250] 34767
[unused251] 34766
[unused252] 34765
[unused253] 34764
[unused254] 34763
[unused255] 34762
[unused256] 34761
[unused257] 34760
[unused258] 34759
[unused259] 34758
[unused260] 34757
[unused261] 34756
[unused262] 34755
[unused263] 34754
[unused264] 34753
[unused265] 34752
[unused266] 34751
[unused267] 34750
[unused268] 34749
[unused269] 34748
[unused270] 34747
[unused271] 34746
[unused272] 34745
[unused273] 34744
[unused274] 34743
[unused275] 34742
[unused276] 34741
[unused277] 34740
[unused278] 34739
[unused279] 34738
[unused280] 34737
[unused281] 34736
[unused282] 34735
[unused283] 34734
[unused284] 34733
[unused285] 34732
[unused286] 34731
[unused287] 34730
[unused288] 34729
[unused289] 34728
[unused290] 34727
[unused291] 34726
[unused292] 34725
[unused293] 34724
[unused294] 34723
[unused295] 34722
[unused296] 34721
[unused297] 34720
[unused298] 34719
[unused299] 34718
[unused300] 34717
[unused301] 34716
[unused302] 34715
[unused303] 34714
[unused304] 34713
[unused305] 34712
[unused306] 34711
[unused307] 34710
[unused308] 34709
[unused309] 34708
[unused310] 34707
[unused311] 34706
[unused312] 34705
[unused313] 34704
[unused314] 34703
[unused315] 34702
[unused316] 34701
[unused317] 34700
[unused318] 34699
[unused319] 34698
[unused320] 34697
[unused321] 34696
[unused322] 34695
[unused323] 34694
[unused324] 34693
[unused325] 34692
[unused326] 34691
[unused327] 34690
[unused328] 34689
[unused329] 34688
[unused330] 34687
[unused331] 34686
[unused332] 34685
[unused333] 34684
[unused334] 34683
[unused335] 34682
[unused336] 34681
[unused337] 34680
[unused338] 34679
[unused339] 34678
[unused340] 34677
[unused341] 34676
[unused342] 34675
[unused343] 34674
[unused344] 34673
[unused345] 34672
[unused346] 34671
[unused347] 34670
[unused348] 34669
[unused349] 34668
[unused350] 34667
[unused351] 34666
[unused352] 34665
[unused353] 34664
[unused354] 34663
[unused355] 34662
[unused356] 34661
[unused357] 34660
[unused358] 34659
[unused359] 34658
[unused360] 34657
[unused361] 34656
[unused362] 34655
[unused363] 34654
[unused364] 34653
[unused365] 34652
[unused366] 34651
[unused367] 34650
[unused368] 34649
[unused369] 34648
[unused370] 34647
[unused371] 34646
[unused372] 34645
[unused373] 34644
[unused374] 34643
[unused375] 34642
[unused376] 34641
[unused377] 34640
[unused378] 34639
[unused379] 34638
[unused380] 34637
[unused381] 34636
[unused382] 34635
[unused383] 34634
[unused384] 34633
[unused385] 34632
[unused386] 34631
[unused387] 34630
[unused388] 34629
[unused389] 34628
[unused390] 34627
[unused391] 34626
[unused392] 34625
[unused393] 34624
[unused394] 34623
[unused395] 34622
[unused396] 34621
[unused397] 34620
[unused398] 34619
[unused399] 34618
[unused400] 34617
[unused401] 34616
[unused402] 34615
[unused403] 34614
[unused404] 34613
[unused405] 34612
[unused406] 34611
[unused407] 34610
[unused408] 34609
[unused409] 34608
[unused410] 34607
[unused411] 34606
[unused412] 34605
[unused413] 34604
[unused414] 34603
[unused415] 34602
[unused416] 34601
[unused417] 34600
[unused418] 34599
[unused419] 34598
[unused420] 34597
[unused421] 34596
[unused422] 34595
[unused423] 34594
[unused424] 34593
[unused425] 34592
[unused426] 34591
[unused427] 34590
[unused428] 34589
[unused429] 34588
[unused430] 34587
[unused431] 34586
[unused432] 34585
[unused433] 34584
[unused434] 34583
[unused435] 34582
[unused436] 34581
[unused437] 34580
[unused438] 34579
[unused439] 34578
[unused440] 34577
[unused441] 34576
[unused442] 34575
[unused443] 34574
[unused444] 34573
[unused445] 34572
[unused446] 34571
[unused447] 34570
[unused448] 34569
[unused449] 34568
[unused450] 34567
[unused451] 34566
[unused452] 34565
[unused453] 34564
[unused454] 34563
[unused455] 34562
[unused456] 34561
[unused457] 34560
[unused458] 34559
[unused459] 34558
[unused460] 34557
[unused461] 34556
[unused462] 34555
[unused463] 34554
[unused464] 34553
[unused465] 34552
[unused466] 34551
[unused467] 34550
[unused468] 34549
[unused469] 34548
[unused470] 34547
[unused471] 34546
[unused472] 34545
[unused473] 34544
[unused474] 34543
[unused475] 34542
[unused476] 34541
[unused477] 34540
[unused478] 34539
[unused479] 34538
[unused480] 34537
[unused481] 34536
[unused482] 34535
[unused483] 34534
[unused484] 34533
[unused485] 34532
[unused486] 34531
[unused487] 34530
[unused488] 34529
[unused489] 34528
[unused490] 34527
[unused491] 34526
[unused492] 34525
[unused493] 34524
[unused494] 34523
[unused495] 34522
[unused496] 34521
[unused497] 34520
[unused498] 34519
[unused499] 34518
[unused500] 34517
[unused501] 34516
[unused502] 34515
[unused503] 34514
[unused504] 34513
[unused505] 34512
[unused506] 34511
[unused507] 34510
[unused508] 34509
[unused509] 34508
[unused510] 34507
[unused511] 34506
[unused512] 34505
[unused513] 34504
[unused514] 34503
[unused515] 34502
[unused516] 34501
[unused517] 34500
[unused518] 34499
[unused519] 34498
[unused520] 34497
[unused521] 34496
[unused522] 34495
[unused523] 34494
[unused524] 34493
[unused525] 34492
[unused526] 34491
[unused527] 34490
[unused528] 34489
[unused529] 34488
[unused530] 34487
[unused531] 34486
[unused532] 34485
[unused533] 34484
[unused534] 34483
[unused535] 34482
[unused536] 34481
[unused537] 34480
[unused538] 34479
[unused539] 34478
[unused540] 34477
[unused541] 34476
[unused542] 34475
[unused543] 34474
[unused544] 34473
[unused545] 34472
[unused546] 34471
[unused547] 34470
[unused548] 34469
[unused549] 34468
[unused550] 34467
[unused551] 34466
[unused552] 34465
[unused553] 34464
[unused554] 34463
[unused555] 34462
[unused556] 34461
[unused557] 34460
[unused558] 34459
[unused559] 34458
[unused560] 34457
[unused561] 34456
[unused562] 34455
[unused563] 34454
[unused564] 34453
[unused565] 34452
[unused566] 34451
[unused567] 34450
[unused568] 34449
[unused569] 34448
[unused570] 34447
[unused571] 34446
[unused572] 34445
[unused573] 34444
[unused574] 34443
[unused575] 34442
[unused576] 34441
[unused577] 34440
[unused578] 34439
[unused579] 34438
[unused580] 34437
[unused581] 34436
[unused582] 34435
[unused583] 34434
[unused584] 34433
[unused585] 34432
[unused586] 34431
[unused587] 34430
[unused588] 34429
[unused589] 34428
[unused590] 34427
[unused591] 34426
[unused592] 34425
[unused593] 34424
[unused594] 34423
[unused595] 34422
[unused596] 34421
[unused597] 34420
[unused598] 34419
[unused599] 34418
[unused600] 34417
[unused601] 34416
[unused602] 34415
[unused603] 34414
[unused604] 34413
[unused605] 34412
[unused606] 34411
[unused607] 34410
[unused608] 34409
[unused609] 34408
[unused610] 34407
[unused611] 34406
[unused612] 34405
[unused613] 34404
[unused614] 34403
[unused615] 34402
[unused616] 34401
[unused617] 34400
[unused618] 34399
[unused619] 34398
[unused620] 34397
[unused621] 34396
[unused622] 34395
[unused623] 34394
[unused624] 34393
[unused625] 34392
[unused626] 34391
[unused627] 34390
[unused628] 34389
[unused629] 34388
[unused630] 34387
[unused631] 34386
[unused632] 34385
[unused633] 34384
[unused634] 34383
[unused635] 34382
[unused636] 34381
[unused637] 34380
[unused638] 34379
[unused639] 34378
[unused640] 34377
[unused641] 34376
[unused642] 34375
[unused643] 34374
[unused644] 34373
[unused645] 34372
[unused646] 34371
[unused647] 34370
[unused648] 34369
[unused649] 34368
[unused650] 34367
[unused651] 34366
[unused652] 34365
[unused653] 34364
[unused654] 34363
[unused655] 34362
[unused656] 34361
[unused657] 34360
[unused658] 34359
[unused659] 34358
[unused660] 34357
[unused661] 34356
[unused662] 34355
[unused663] 34354
[unused664] 34353
[unused665] 34352
[unused666] 34351
[unused667] 34350
[unused668] 34349
[unused669] 34348
[unused670] 34347
[unused671] 34346
[unused672] 34345
[unused673] 34344
[unused674] 34343
[unused675] 34342
[unused676] 34341
[unused677] 34340
[unused678] 34339
[unused679] 34338
[unused680] 34337
[unused681] 34336
[unused682] 34335
[unused683] 34334
[unused684] 34333
[unused685] 34332
[unused686] 34331
[unused687] 34330
[unused688] 34329
[unused689] 34328
[unused690] 34327
[unused691] 34326
[unused692] 34325
[unused693] 34324
[unused694] 34323
[unused695] 34322
[unused696] 34321
[unused697] 34320
[unused698] 34319
[unused699] 34318
[unused700] 34317
[unused701] 34316
[unused702] 34315
[unused703] 34314
[unused704] 34313
[unused705] 34312
[unused706] 34311
[unused707] 34310
[unused708] 34309
[unused709] 34308
[unused710] 34307
[unused711] 34306
[unused712] 34305
[unused713] 34304
[unused714] 34303
[unused715] 34302
[unused716] 34301
[unused717] 34300
[unused718] 34299
[unused719] 34298
[unused720] 34297
[unused721] 34296
[unused722] 34295
[unused723] 34294
[unused724] 34293
[unused725] 34292
[unused726] 34291
[unused727] 34290
[unused728] 34289
[unused729] 34288
[unused730] 34287
[unused731] 34286
[unused732] 34285
[unused733] 34284
[unused734] 34283
[unused735] 34282
[unused736] 34281
[unused737] 34280
[unused738] 34279
[unused739] 34278
[unused740] 34277
[unused741] 34276
[unused742] 34275
[unused743] 34274
[unused744] 34273
[unused745] 34272
[unused746] 34271
[unused747] 34270
[unused748] 34269
[unused749] 34268
[unused750] 34267
[unused751] 34266
[unused752] 34265
[unused753] 34264
[unused754] 34263
[unused755] 34262
[unused756] 34261
[unused757] 34260
[unused758] 34259
[unused759] 34258
[unused760] 34257
[unused761] 34256
[unused762] 34255
[unused763] 34254
[unused764] 34253
[unused765] 34252
[unused766] 34251
[unused767] 34250
[unused768] 34249
[unused769] 34248
[unused770] 34247
[unused771] 34246
[unused772] 34245
[unused773] 34244
[unused774] 34243
[unused775] 34242
[unused776] 34241
[unused777] 34240
[unused778] 34239
[unused779] 34238
[unused780] 34237
[unused781] 34236
[unused782] 34235
[unused783] 34234
[unused784] 34233
[unused785] 34232
[unused786] 34231
[unused787] 34230
[unused788] 34229
[unused789] 34228
[unused790] 34227
[unused791] 34226
[unused792] 34225
[unused793] 34224
[unused794] 34223
[unused795] 34222
[unused796] 34221
[unused797] 34220
[unused798] 34219
[unused799] 34218
[unused800] 34217
[unused801] 34216
[unused802] 34215
[unused803] 34214
[unused804] 34213
[unused805] 34212
[unused806] 34211
[unused807] 34210
[unused808] 34209
[unused809] 34208
[unused810] 34207
[unused811] 34206
[unused812] 34205
[unused813] 34204
[unused814] 34203
[unused815] 34202
[unused816] 34201
[unused817] 34200
[unused818] 34199
[unused819] 34198
[unused820] 34197
[unused821] 34196
[unused822] 34195
[unused823] 34194
[unused824] 34193
[unused825] 34192
[unused826] 34191
[unused827] 34190
[unused828] 34189
[unused829] 34188
[unused830] 34187
[unused831] 34186
[unused832] 34185
[unused833] 34184
[unused834] 34183
[unused835] 34182
[unused836] 34181
[unused837] 34180
[unused838] 34179
[unused839] 34178
[unused840] 34177
[unused841] 34176
[unused842] 34175
[unused843] 34174
[unused844] 34173
[unused845] 34172
[unused846] 34171
[unused847] 34170
[unused848] 34169
[unused849] 34168
[unused850] 34167
[unused851] 34166
[unused852] 34165
[unused853] 34164
[unused854] 34163
[unused855] 34162
[unused856] 34161
[unused857] 34160
[unused858] 34159
[unused859] 34158
[unused860] 34157
[unused861] 34156
[unused862] 34155
[unused863] 34154
[unused864] 34153
[unused865] 34152
[unused866] 34151
[unused867] 34150
[unused868] 34149
[unused869] 34148
[unused870] 34147
[unused871] 34146
[unused872] 34145
[unused873] 34144
[unused874] 34143
[unused875] 34142
[unused876] 34141
[unused877] 34140
[unused878] 34139
[unused879] 34138
[unused880] 34137
[unused881] 34136
[unused882] 34135
[unused883] 34134
[unused884] 34133
[unused885] 34132
[unused886] 34131
[unused887] 34130
[unused888] 34129
[unused889] 34128
[unused890] 34127
[unused891] 34126
[unused892] 34125
[unused893] 34124
[unused894] 34123
[unused895] 34122
[unused896] 34121
[unused897] 34120
[unused898] 34119
[unused899] 34118
[unused900] 34117
[unused901] 34116
[unused902] 34115
[unused903] 34114
[unused904] 34113
[unused905] 34112
[unused906] 34111
[unused907] 34110
[unused908] 34109
[unused909] 34108
[unused910] 34107
[unused911] 34106
[unused912] 34105
[unused913] 34104
[unused914] 34103
[unused915] 34102
[unused916] 34101
[unused917] 34100
[unused918] 34099
[unused919] 34098
[unused920] 34097
[unused921] 34096
[unused922] 34095
[unused923] 34094
[unused924] 34093
[unused925] 34092
[unused926] 34091
[unused927] 34090
[unused928] 34089
[unused929] 34088
[unused930] 34087
[unused931] 34086
[unused932] 34085
[unused933] 34084
[unused934] 34083
[unused935] 34082
[unused936] 34081
[unused937] 34080
[unused938] 34079
[unused939] 34078
[unused940] 34077
[unused941] 34076
[unused942] 34075
[unused943] 34074
[unused944] 34073
[unused945] 34072
[unused946] 34071
[unused947] 34070
[unused948] 34069
[unused949] 34068
[unused950] 34067
[unused951] 34066
[unused952] 34065
[unused953] 34064
[unused954] 34063
[unused955] 34062
[unused956] 34061
[unused957] 34060
[unused958] 34059
[unused959] 34058
[unused960] 34057
[unused961] 34056
[unused962] 34055
[unused963] 34054
[unused964] 34053
[unused965] 34052
[unused966] 34051
[unused967] 34050
[unused968] 34049
[unused969] 34048
[unused970] 34047
[unused971] 34046
[unused972] 34045
[unused973] 34044
[unused974] 34043
[unused975] 34042
[unused976] 34041
[unused977] 34040
[unused978] 34039
[unused979] 34038
[unused980] 34037
[unused981] 34036
[unused982] 34035
[unused983] 34034
[unused984] 34033
[unused985] 34032
[unused986] 34031
[unused987] 34030
[unused988] 34029
[unused989] 34028
[unused990] 34027
[unused991] 34026
[unused992] 34025
[unused993] 34024
! 34023
" 34022
# 34021
$ 34020
% 34019
& 34018
' 34017
( 34016
) 34015
* 34014
+ 34013
, 34012
- 34011
. 34010
/ 34009
0 34008
1 34007
2 34006
3 34005
4 34004
5 34003
6 34002
7 34001
8 34000
9 33999
: 33998
; 33997
< 33996
= 33995
> 33994
? 33993
@ 33992
[ 33991
\ 33990
] 33989
^ 33988
_ 33987
` 33986
a 33985
b 33984
c 33983
d 33982
e 33981
f 33980
g 33979
h 33978
i 33977
j 33976
k 33975
l 33974
m 33973
n 33972
o 33971
p 33970
q 33969
r 33968
s 33967
t 33966
u 33965
v 33964
w 33963
x 33962
y 33961
z 33960
{ 33959
| 33958
} 33957
~ 33956
¡ 33955
¢ 33954
£ 33953
¤ 33952
¥ 33951
¦ 33950
§ 33949
¨ 33948
© 33947
ª 33946
« 33945
¬ 33944
® 33943
° 33942
± 33941
² 33940
³ 33939
´ 33938
µ 33937
¶ 33936
· 33935
¹ 33934
º 33933
» 33932
¼ 33931
½ 33930
¾ 33929
¿ 33928
× 33927
ß 33926
æ 33925
ð 33924
÷ 33923
ø 33922
þ 33921
đ 33920
ħ 33919
ı 33918
ł 33917
ŋ 33916
œ 33915
ƒ 33914
ɐ 33913
ɑ 33912
ɒ 33911
ɔ 33910
ɕ 33909
ə 33908
ɛ 33907
ɡ 33906
ɣ 33905
ɨ 33904
ɪ 33903
ɫ 33902
ɬ 33901
ɯ 33900
ɲ 33899
ɴ 33898
ɹ 33897
ɾ 33896
ʀ 33895
ʁ 33894
ʂ 33893
ʃ 33892
ʉ 33891
ʊ 33890
ʋ 33889
ʌ 33888
ʎ 33887
ʐ 33886
ʑ 33885
ʒ 33884
ʔ 33883
ʰ 33882
ʲ 33881
ʳ 33880
ʷ 33879
ʸ 33878
ʻ 33877
ʼ 33876
ʾ 33875
ʿ 33874
ˈ 33873
ː 33872
ˡ 33871
ˢ 33870
ˣ 33869
ˤ 33868
α 33867
β 33866
γ 33865
δ 33864
ε 33863
ζ 33862
η 33861
θ 33860
ι 33859
κ 33858
λ 33857
μ 33856
ν 33855
ξ 33854
ο 33853
π 33852
ρ 33851
ς 33850
σ 33849
τ 33848
υ 33847
φ 33846
χ 33845
ψ 33844
ω 33843
а 33842
б 33841
в 33840
г 33839
д 33838
е 33837
ж 33836
з 33835
и 33834
к 33833
л 33832
м 33831
н 33830
о 33829
п 33828
р 33827
с 33826
т 33825
у 33824
ф 33823
х 33822
ц 33821
ч 33820
ш 33819
щ 33818
ъ 33817
ы 33816
ь 33815
э 33814
ю 33813
я 33812
ђ 33811
є 33810
і 33809
ј 33808
љ 33807
њ 33806
ћ 33805
ӏ 33804
ա 33803
բ 33802
գ 33801
դ 33800
ե 33799
թ 33798
ի 33797
լ 33796
կ 33795
հ 33794
մ 33793
յ 33792
ն 33791
ո 33790
պ 33789
ս 33788
վ 33787
տ 33786
ր 33785
ւ 33784
ք 33783
־ 33782
א 33781
ב 33780
ג 33779
ד 33778
ה 33777
ו 33776
ז 33775
ח 33774
ט 33773
י 33772
ך 33771
כ 33770
ל 33769
ם 33768
מ 33767
ן 33766
נ 33765
ס 33764
ע 33763
ף 33762
פ 33761
ץ 33760
צ 33759
ק 33758
ר 33757
ש 33756
ת 33755
، 33754
ء 33753
ا 33752
ب 33751
ة 33750
ت 33749
ث 33748
ج 33747
ح 33746
خ 33745
د 33744
ذ 33743
ر 33742
ز 33741
س 33740
ش 33739
ص 33738
ض 33737
ط 33736
ظ 33735
ع 33734
غ 33733
ـ 33732
ف 33731
ق 33730
ك 33729
ل 33728
م 33727
ن 33726
ه 33725
و 33724
ى 33723
ي 33722
ٹ 33721
پ 33720
چ 33719
ک 33718
گ 33717
ں 33716
ھ 33715
ہ 33714
ی 33713
ے 33712
अ 33711
आ 33710
उ 33709
ए 33708
क 33707
ख 33706
ग 33705
च 33704
ज 33703
ट 33702
ड 33701
ण 33700
त 33699
थ 33698
द 33697
ध 33696
न 33695
प 33694
ब 33693
भ 33692
म 33691
य 33690
र 33689
ल 33688
व 33687
श 33686
ष 33685
स 33684
ह 33683
ा 33682
ि 33681
ी 33680
ो 33679
। 33678
॥ 33677
ং 33676
অ 33675
আ 33674
ই 33673
উ 33672
এ 33671
ও 33670
ক 33669
খ 33668
গ 33667
চ 33666
ছ 33665
জ 33664
ট 33663
ড 33662
ণ 33661
ত 33660
থ 33659
দ 33658
ধ 33657
ন 33656
প 33655
ব 33654
ভ 33653
ম 33652
য 33651
র 33650
ল 33649
শ 33648
ষ 33647
স 33646
হ 33645
া 33644
ি 33643
ী 33642
ে 33641
க 33640
ச 33639
ட 33638
த 33637
ந 33636
ன 33635
ப 33634
ம 33633
ய 33632
ர 33631
ல 33630
ள 33629
வ 33628
ா 33627
ி 33626
ு 33625
ே 33624
ை 33623
ನ 33622
ರ 33621
ಾ 33620
ක 33619
ය 33618
ර 33617
ල 33616
ව 33615
ා 33614
ก 33613
ง 33612
ต 33611
ท 33610
น 33609
พ 33608
ม 33607
ย 33606
ร 33605
ล 33604
ว 33603
ส 33602
อ 33601
า 33600
เ 33599
་ 33598
། 33597
ག 33596
ང 33595
ད 33594
ན 33593
པ 33592
བ 33591
མ 33590
འ 33589
ར 33588
ལ 33587
ས 33586
မ 33585
ა 33584
ბ 33583
გ 33582
დ 33581
ე 33580
ვ 33579
თ 33578
ი 33577
კ 33576
ლ 33575
მ 33574
ნ 33573
ო 33572
რ 33571
ს 33570
ტ 33569
უ 33568
ᄀ 33567
ᄂ 33566
ᄃ 33565
ᄅ 33564
ᄆ 33563
ᄇ 33562
ᄉ 33561
ᄊ 33560
ᄋ 33559
ᄌ 33558
ᄎ 33557
ᄏ 33556
ᄐ 33555
ᄑ 33554
ᄒ 33553
ᅡ 33552
ᅢ 33551
ᅥ 33550
ᅦ 33549
ᅧ 33548
ᅩ 33547
ᅪ 33546
ᅭ 33545
ᅮ 33544
ᅯ 33543
ᅲ 33542
ᅳ 33541
ᅴ 33540
ᅵ 33539
ᆨ 33538
ᆫ 33537
ᆯ 33536
ᆷ 33535
ᆸ 33534
ᆼ 33533
ᴬ 33532
ᴮ 33531
ᴰ 33530
ᴵ 33529
ᴺ 33528
ᵀ 33527
ᵃ 33526
ᵇ 33525
ᵈ 33524
ᵉ 33523
ᵍ 33522
ᵏ 33521
ᵐ 33520
ᵒ 33519
ᵖ 33518
ᵗ 33517
ᵘ 33516
ᵢ 33515
ᵣ 33514
ᵤ 33513
ᵥ 33512
ᶜ 33511
ᶠ 33510
‐ 33509
‑ 33508
‒ 33507
– 33506
— 33505
― 33504
‖ 33503
‘ 33502
’ 33501
‚ 33500
“ 33499
” 33498
„ 33497
† 33496
‡ 33495
• 33494
… 33493
‰ 33492
′ 33491
″ 33490
› 33489
‿ 33488
⁄ 33487
⁰ 33486
ⁱ 33485
⁴ 33484
⁵ 33483
⁶ 33482
⁷ 33481
⁸ 33480
⁹ 33479
⁺ 33478
⁻ 33477
ⁿ 33476
₀ 33475
₁ 33474
₂ 33473
₃ 33472
₄ 33471
₅ 33470
₆ 33469
₇ 33468
₈ 33467
₉ 33466
₊ 33465
₍ 33464
₎ 33463
ₐ 33462
ₑ 33461
ₒ 33460
ₓ 33459
ₕ 33458
ₖ 33457
ₗ 33456
ₘ 33455
ₙ 33454
ₚ 33453
ₛ 33452
ₜ 33451
₤ 33450
₩ 33449
€ 33448
₱ 33447
₹ 33446
ℓ 33445
№ 33444
ℝ 33443
™ 33442
⅓ 33441
⅔ 33440
← 33439
↑ 33438
→ 33437
↓ 33436
↔ 33435
↦ 33434
⇄ 33433
⇌ 33432
⇒ 33431
∂ 33430
∅ 33429
∆ 33428
∇ 33427
∈ 33426
− 33425
∗ 33424
∘ 33423
√ 33422
∞ 33421
∧ 33420
∨ 33419
∩ 33418
∪ 33417
≈ 33416
≡ 33415
≤ 33414
≥ 33413
⊂ 33412
⊆ 33411
⊕ 33410
⊗ 33409
⋅ 33408
─ 33407
│ 33406
■ 33405
▪ 33404
● 33403
★ 33402
☆ 33401
☉ 33400
♠ 33399
♣ 33398
♥ 33397
♦ 33396
♭ 33395
♯ 33394
⟨ 33393
⟩ 33392
ⱼ 33391
⺩ 33390
⺼ 33389
⽥ 33388
、 33387
。 33386
〈 33385
〉 33384
《 33383
》 33382
「 33381
」 33380
『 33379
』 33378
〜 33377
あ 33376
い 33375
う 33374
え 33373
お 33372
か 33371
き 33370
く 33369
け 33368
こ 33367
さ 33366
し 33365
す 33364
せ 33363
そ 33362
た 33361
ち 33360
っ 33359
つ 33358
て 33357
と 33356
な 33355
に 33354
ぬ 33353
ね 33352
の 33351
は 33350
ひ 33349
ふ 33348
へ 33347
ほ 33346
ま 33345
み 33344
む 33343
め 33342
も 33341
や 33340
ゆ 33339
よ 33338
ら 33337
り 33336
る 33335
れ 33334
ろ 33333
を 33332
ん 33331
ァ 33330
ア 33329
ィ 33328
イ 33327
ウ 33326
ェ 33325
エ 33324
オ 33323
カ 33322
キ 33321
ク 33320
ケ 33319
コ 33318
サ 33317
シ 33316
ス 33315
セ 33314
タ 33313
チ 33312
ッ 33311
ツ 33310
テ 33309
ト 33308
ナ 33307
ニ 33306
ノ 33305
ハ 33304
ヒ 33303
フ 33302
ヘ 33301
ホ 33300
マ 33299
ミ 33298
ム 33297
メ 33296
モ 33295
ャ 33294
ュ 33293
ョ 33292
ラ 33291
リ 33290
ル 33289
レ 33288
ロ 33287
ワ 33286
ン 33285
・ 33284
ー 33283
一 33282
三 33281
上 33280
下 33279
不 33278
世 33277
中 33276
主 33275
久 33274
之 33273
也 33272
事 33271
二 33270
五 33269
井 33268
京 33267
人 33266
亻 33265
仁 33264
介 33263
代 33262
仮 33261
伊 33260
会 33259
佐 33258
侍 33257
保 33256
信 33255
健 33254
元 33253
光 33252
八 33251
公 33250
内 33249
出 33248
分 33247
前 33246
劉 33245
力 33244
加 33243
勝 33242
北 33241
区 33240
十 33239
千 33238
南 33237
博 33236
原 33235
口 33234
古 33233
史 33232
司 33231
合 33230
吉 33229
同 33228
名 33227
和 33226
囗 33225
四 33224
国 33223
國 33222
土 33221
地 33220
坂 33219
城 33218
堂 33217
場 33216
士 33215
夏 33214
外 33213
大 33212
天 33211
太 33210
夫 33209
奈 33208
女 33207
子 33206
学 33205
宀 33204
宇 33203
安 33202
宗 33201
定 33200
宣 33199
宮 33198
家 33197
宿 33196
寺 33195
將 33194
小 33193
尚 33192
山 33191
岡 33190
島 33189
崎 33188
川 33187
州 33186
巿 33185
帝 33184
平 33183
年 33182
幸 33181
广 33180
弘 33179
張 33178
彳 33177
後 33176
御 33175
德 33174
心 33173
忄 33172
志 33171
忠 33170
愛 33169
成 33168
我 33167
戦 33166
戸 33165
手 33164
扌 33163
政 33162
文 33161
新 33160
方 33159
日 33158
明 33157
星 33156
春 33155
昭 33154
智 33153
曲 33152
書 33151
月 33150
有 33149
朝 33148
木 33147
本 33146
李 33145
村 33144
東 33143
松 33142
林 33141
森 33140
楊 33139
樹 33138
橋 33137
歌 33136
止 33135
正 33134
武 33133
比 33132
氏 33131
民 33130
水 33129
氵 33128
氷 33127
永 33126
江 33125
沢 33124
河 33123
治 33122
法 33121
海 33120
清 33119
漢 33118
瀬 33117
火 33116
版 33115
犬 33114
王 33113
生 33112
田 33111
男 33110
疒 33109
発 33108
白 33107
的 33106
皇 33105
目 33104
相 33103
省 33102
真 33101
石 33100
示 33099
社 33098
神 33097
福 33096
禾 33095
秀 33094
秋 33093
空 33092
立 33091
章 33090
竹 33089
糹 33088
美 33087
義 33086
耳 33085
良 33084
艹 33083
花 33082
英 33081
華 33080
葉 33079
藤 33078
行 33077
街 33076
西 33075
見 33074
訁 33073
語 33072
谷 33071
貝 33070
貴 33069
車 33068
軍 33067
辶 33066
道 33065
郎 33064
郡 33063
部 33062
都 33061
里 33060
野 33059
金 33058
鈴 33057
镇 33056
長 33055
門 33054
間 33053
阝 33052
阿 33051
陳 33050
陽 33049
雄 33048
青 33047
面 33046
風 33045
食 33044
香 33043
馬 33042
高 33041
龍 33040
龸 33039
ﬁ 33038
ﬂ 33037
！ 33036
（ 33035
） 33034
， 33033
－ 33032
． 33031
／ 33030
： 33029
？ 33028
～ 33027
the 33026
of 33025
and 33024
in 33023
to 33022
was 33021
he 33020
is 33019
as 33018
for 33017
on 33016
with 33015
that 33014
it 33013
his 33012
by 33011
at 33010
from 33009
her 33008
##s 33007
she 33006
you 33005
had 33004
an 33003
were 33002
but 33001
be 33000
this 32999
are 32998
not 32997
my 32996
they 32995
one 32994
which 32993
or 32992
have 32991
him 32990
me 32989
first 32988
all 32987
also 32986
their 32985
has 32984
up 32983
who 32982
out 32981
been 32980
when 32979
after 32978
there 32977
into 32976
new 32975
two 32974
its 32973
##a 32972
time 32971
would 32970
no 32969
what 32968
about 32967
said 32966
we 32965
over 32964
then 32963
other 32962
so 32961
more 32960
##e 32959
can 32958
if 32957
like 32956
back 32955
them 32954
only 32953
some 32952
could 32951
##i 32950
where 32949
just 32948
##ing 32947
during 32946
before 32945
##n 32944
do 32943
##o 32942
made 32941
school 32940
through 32939
than 32938
now 32937
years 32936
most 32935
world 32934
may 32933
between 32932
down 32931
well 32930
three 32929
##d 32928
year 32927
while 32926
will 32925
##ed 32924
##r 32923
##y 32922
later 32921
##t 32920
city 32919
under 32918
around 32917
did 32916
such 32915
being 32914
used 32913
state 32912
people 32911
part 32910
know 32909
against 32908
your 32907
many 32906
second 32905
university 32904
both 32903
national 32902
##er 32901
these 32900
don 32899
known 32898
off 32897
way 32896
until 32895
re 32894
how 32893
even 32892
get 32891
head 32890
... 32889
didn 32888
##ly 32887
team 32886
american 32885
because 32884
de 32883
##l 32882
born 32881
united 32880
film 32879
since 32878
still 32877
long 32876
work 32875
south 32874
us 32873
became 32872
any 32871
high 32870
again 32869
day 32868
family 32867
see 32866
right 32865
man 32864
eyes 32863
house 32862
season 32861
war 32860
states 32859
including 32858
took 32857
life 32856
north 32855
same 32854
each 32853
called 32852
name 32851
much 32850
place 32849
however 32848
go 32847
four 32846
group 32845
another 32844
found 32843
won 32842
area 32841
here 32840
going 32839
10 32838
away 32837
series 32836
left 32835
home 32834
music 32833
best 32832
make 32831
hand 32830
number 32829
company 32828
several 32827
never 32826
last 32825
john 32824
000 32823
very 32822
album 32821
take 32820
end 32819
good 32818
too 32817
following 32816
released 32815
game 32814
played 32813
little 32812
began 32811
district 32810
##m 32809
old 32808
want 32807
those 32806
side 32805
held 32804
own 32803
early 32802
county 32801
ll 32800
league 32799
use 32798
west 32797
##u 32796
face 32795
think 32794
##es 32793
2010 32792
government 32791
##h 32790
march 32789
came 32788
small 32787
general 32786
town 32785
june 32784
##on 32783
line 32782
based 32781
something 32780
##k 32779
september 32778
thought 32777
looked 32776
along 32775
international 32774
2011 32773
air 32772
july 32771
club 32770
went 32769
january 32768
october 32767
our 32766
august 32765
april 32764
york 32763
12 32762
few 32761
2012 32760
2008 32759
east 32758
show 32757
member 32756
college 32755
2009 32754
father 32753
public 32752
##us 32751
come 32750
men 32749
five 32748
set 32747
station 32746
church 32745
##c 32744
next 32743
former 32742
november 32741
room 32740
party 32739
located 32738
december 32737
2013 32736
age 32735
got 32734
2007 32733
##g 32732
system 32731
let 32730
love 32729
2006 32728
though 32727
every 32726
2014 32725
look 32724
song 32723
water 32722
century 32721
without 32720
body 32719
black 32718
night 32717
within 32716
great 32715
women 32714
single 32713
ve 32712
building 32711
large 32710
population 32709
river 32708
named 32707
band 32706
white 32705
started 32704
##an 32703
once 32702
15 32701
20 32700
should 32699
18 32698
2015 32697
service 32696
top 32695
built 32694
british 32693
open 32692
death 32691
king 32690
moved 32689
local 32688
times 32687
children 32686
february 32685
book 32684
why 32683
11 32682
door 32681
need 32680
president 32679
order 32678
final 32677
road 32676
wasn 32675
although 32674
due 32673
major 32672
died 32671
village 32670
third 32669
knew 32668
2016 32667
asked 32666
turned 32665
st 32664
wanted 32663
say 32662
##p 32661
together 32660
received 32659
main 32658
son 32657
served 32656
different 32655
##en 32654
behind 32653
himself 32652
felt 32651
members 32650
power 32649
football 32648
law 32647
voice 32646
play 32645
##in 32644
near 32643
park 32642
history 32641
30 32640
having 32639
2005 32638
16 32637
##man 32636
saw 32635
mother 32634
##al 32633
army 32632
point 32631
front 32630
help 32629
english 32628
street 32627
art 32626
late 32625
hands 32624
games 32623
award 32622
##ia 32621
young 32620
14 32619
put 32618
published 32617
country 32616
division 32615
across 32614
told 32613
13 32612
often 32611
ever 32610
french 32609
london 32608
center 32607
six 32606
red 32605
2017 32604
led 32603
days 32602
include 32601
light 32600
25 32599
find 32598
tell 32597
among 32596
species 32595
really 32594
according 32593
central 32592
half 32591
2004 32590
form 32589
original 32588
gave 32587
office 32586
making 32585
enough 32584
lost 32583
full 32582
opened 32581
must 32580
included 32579
live 32578
given 32577
german 32576
player 32575
run 32574
business 32573
woman 32572
community 32571
cup 32570
might 32569
million 32568
land 32567
2000 32566
court 32565
development 32564
17 32563
short 32562
round 32561
ii 32560
km 32559
seen 32558
class 32557
story 32556
always 32555
become 32554
sure 32553
research 32552
almost 32551
director 32550
council 32549
la 32548
##2 32547
career 32546
things 32545
using 32544
island 32543
##z 32542
couldn 32541
car 32540
##is 32539
24 32538
close 32537
force 32536
##1 32535
better 32534
free 32533
support 32532
control 32531
field 32530
students 32529
2003 32528
education 32527
married 32526
##b 32525
nothing 32524
worked 32523
others 32522
record 32521
big 32520
inside 32519
level 32518
anything 32517
continued 32516
give 32515
james 32514
##3 32513
military 32512
established 32511
non 32510
returned 32509
feel 32508
does 32507
title 32506
written 32505
thing 32504
feet 32503
william 32502
far 32501
co 32500
association 32499
hard 32498
already 32497
2002 32496
##ra 32495
championship 32494
human 32493
western 32492
100 32491
##na 32490
department 32489
hall 32488
role 32487
various 32486
production 32485
21 32484
19 32483
heart 32482
2001 32481
living 32480
fire 32479
version 32478
##ers 32477
##f 32476
television 32475
royal 32474
##4 32473
produced 32472
working 32471
act 32470
case 32469
society 32468
region 32467
present 32466
radio 32465
period 32464
looking 32463
least 32462
total 32461
keep 32460
england 32459
wife 32458
program 32457
per 32456
brother 32455
mind 32454
special 32453
22 32452
##le 32451
am 32450
works 32449
soon 32448
##6 32447
political 32446
george 32445
services 32444
taken 32443
created 32442
##7 32441
further 32440
able 32439
reached 32438
david 32437
union 32436
joined 32435
upon 32434
done 32433
important 32432
social 32431
information 32430
either 32429
##ic 32428
##x 32427
appeared 32426
position 32425
ground 32424
lead 32423
rock 32422
dark 32421
election 32420
23 32419
board 32418
france 32417
hair 32416
course 32415
arms 32414
site 32413
police 32412
girl 32411
instead 32410
real 32409
sound 32408
##v 32407
words 32406
moment 32405
##te 32404
someone 32403
##8 32402
summer 32401
project 32400
announced 32399
san 32398
less 32397
wrote 32396
past 32395
followed 32394
##5 32393
blue 32392
founded 32391
al 32390
finally 32389
india 32388
taking 32387
records 32386
america 32385
##ne 32384
1999 32383
design 32382
considered 32381
northern 32380
god 32379
stop 32378
battle 32377
toward 32376
european 32375
outside 32374
described 32373
track 32372
today 32371
playing 32370
language 32369
28 32368
call 32367
26 32366
heard 32365
professional 32364
low 32363
australia 32362
miles 32361
california 32360
win 32359
yet 32358
green 32357
##ie 32356
trying 32355
blood 32354
##ton 32353
southern 32352
science 32351
maybe 32350
everything 32349
match 32348
square 32347
27 32346
mouth 32345
video 32344
race 32343
recorded 32342
leave 32341
above 32340
##9 32339
daughter 32338
points 32337
space 32336
1998 32335
museum 32334
change 32333
middle 32332
common 32331
##0 32330
move 32329
tv 32328
post 32327
##ta 32326
lake 32325
seven 32324
tried 32323
elected 32322
closed 32321
ten 32320
paul 32319
minister 32318
##th 32317
months 32316
start 32315
chief 32314
return 32313
canada 32312
person 32311
sea 32310
release 32309
similar 32308
modern 32307
brought 32306
rest 32305
hit 32304
formed 32303
mr 32302
##la 32301
1997 32300
floor 32299
event 32298
doing 32297
thomas 32296
1996 32295
robert 32294
care 32293
killed 32292
training 32291
star 32290
week 32289
needed 32288
turn 32287
finished 32286
railway 32285
rather 32284
news 32283
health 32282
sent 32281
example 32280
ran 32279
term 32278
michael 32277
coming 32276
currently 32275
yes 32274
forces 32273
despite 32272
gold 32271
areas 32270
50 32269
stage 32268
fact 32267
29 32266
dead 32265
says 32264
popular 32263
2018 32262
originally 32261
germany 32260
probably 32259
developed 32258
result 32257
pulled 32256
friend 32255
stood 32254
money 32253
running 32252
mi 32251
signed 32250
word 32249
songs 32248
child 32247
eventually 32246
met 32245
tour 32244
average 32243
teams 32242
minutes 32241
festival 32240
current 32239
deep 32238
kind 32237
1995 32236
decided 32235
usually 32234
eastern 32233
seemed 32232
##ness 32231
episode 32230
bed 32229
added 32228
table 32227
indian 32226
private 32225
charles 32224
route 32223
available 32222
idea 32221
throughout 32220
centre 32219
addition 32218
appointed 32217
style 32216
1994 32215
books 32214
eight 32213
construction 32212
press 32211
mean 32210
wall 32209
friends 32208
remained 32207
schools 32206
study 32205
##ch 32204
##um 32203
institute 32202
oh 32201
chinese 32200
sometimes 32199
events 32198
possible 32197
1992 32196
australian 32195
type 32194
brown 32193
forward 32192
talk 32191
process 32190
food 32189
debut 32188
seat 32187
performance 32186
committee 32185
features 32184
character 32183
arts 32182
herself 32181
else 32180
lot 32179
strong 32178
russian 32177
range 32176
hours 32175
peter 32174
arm 32173
##da 32172
morning 32171
dr 32170
sold 32169
##ry 32168
quickly 32167
directed 32166
1993 32165
guitar 32164
china 32163
##w 32162
31 32161
list 32160
##ma 32159
performed 32158
media 32157
uk 32156
players 32155
smile 32154
##rs 32153
myself 32152
40 32151
placed 32150
coach 32149
province 32148
towards 32147
wouldn 32146
leading 32145
whole 32144
boy 32143
official 32142
designed 32141
grand 32140
census 32139
##el 32138
europe 32137
attack 32136
japanese 32135
henry 32134
1991 32133
##re 32132
##os 32131
cross 32130
getting 32129
alone 32128
action 32127
lower 32126
network 32125
wide 32124
washington 32123
japan 32122
1990 32121
hospital 32120
believe 32119
changed 32118
sister 32117
##ar 32116
hold 32115
gone 32114
sir 32113
hadn 32112
ship 32111
##ka 32110
studies 32109
academy 32108
shot 32107
rights 32106
below 32105
base 32104
bad 32103
involved 32102
kept 32101
largest 32100
##ist 32099
bank 32098
future 32097
especially 32096
beginning 32095
mark 32094
movement 32093
section 32092
female 32091
magazine 32090
plan 32089
professor 32088
lord 32087
longer 32086
##ian 32085
sat 32084
walked 32083
hill 32082
actually 32081
civil 32080
energy 32079
model 32078
families 32077
size 32076
thus 32075
aircraft 32074
completed 32073
includes 32072
data 32071
captain 32070
##or 32069
fight 32068
vocals 32067
featured 32066
richard 32065
bridge 32064
fourth 32063
1989 32062
officer 32061
stone 32060
hear 32059
##ism 32058
means 32057
medical 32056
groups 32055
management 32054
self 32053
lips 32052
competition 32051
entire 32050
lived 32049
technology 32048
leaving 32047
federal 32046
tournament 32045
bit 32044
passed 32043
hot 32042
independent 32041
awards 32040
kingdom 32039
mary 32038
spent 32037
fine 32036
doesn 32035
reported 32034
##ling 32033
jack 32032
fall 32031
raised 32030
itself 32029
stay 32028
true 32027
studio 32026
1988 32025
sports 32024
replaced 32023
paris 32022
systems 32021
saint 32020
leader 32019
theatre 32018
whose 32017
market 32016
capital 32015
parents 32014
spanish 32013
canadian 32012
earth 32011
##ity 32010
cut 32009
degree 32008
writing 32007
bay 32006
christian 32005
awarded 32004
natural 32003
higher 32002
bill 32001
##as 32000
coast 31999
provided 31998
previous 31997
senior 31996
ft 31995
valley 31994
organization 31993
stopped 31992
onto 31991
countries 31990
parts 31989
conference 31988
queen 31987
security 31986
interest 31985
saying 31984
allowed 31983
master 31982
earlier 31981
phone 31980
matter 31979
smith 31978
winning 31977
try 31976
happened 31975
moving 31974
campaign 31973
los 31972
##ley 31971
breath 31970
nearly 31969
mid 31968
1987 31967
certain 31966
girls 31965
date 31964
italian 31963
african 31962
standing 31961
fell 31960
artist 31959
##ted 31958
shows 31957
deal 31956
mine 31955
industry 31954
1986 31953
##ng 31952
everyone 31951
republic 31950
provide 31949
collection 31948
library 31947
student 31946
##ville 31945
primary 31944
owned 31943
older 31942
via 31941
heavy 31940
1st 31939
makes 31938
##able 31937
attention 31936
anyone 31935
africa 31934
##ri 31933
stated 31932
length 31931
ended 31930
fingers 31929
command 31928
staff 31927
skin 31926
foreign 31925
opening 31924
governor 31923
okay 31922
medal 31921
kill 31920
sun 31919
cover 31918
job 31917
1985 31916
introduced 31915
chest 31914
hell 31913
feeling 31912
##ies 31911
success 31910
meet 31909
reason 31908
standard 31907
meeting 31906
novel 31905
1984 31904
trade 31903
source 31902
buildings 31901
##land 31900
rose 31899
guy 31898
goal 31897
##ur 31896
chapter 31895
native 31894
husband 31893
previously 31892
unit 31891
limited 31890
entered 31889
weeks 31888
producer 31887
operations 31886
mountain 31885
takes 31884
covered 31883
forced 31882
related 31881
roman 31880
complete 31879
successful 31878
key 31877
texas 31876
cold 31875
##ya 31874
channel 31873
1980 31872
traditional 31871
films 31870
dance 31869
clear 31868
approximately 31867
500 31866
nine 31865
van 31864
prince 31863
question 31862
active 31861
tracks 31860
ireland 31859
regional 31858
silver 31857
author 31856
personal 31855
sense 31854
operation 31853
##ine 31852
economic 31851
1983 31850
holding 31849
twenty 31848
isbn 31847
additional 31846
speed 31845
hour 31844
edition 31843
regular 31842
historic 31841
places 31840
whom 31839
shook 31838
movie 31837
km² 31836
secretary 31835
prior 31834
report 31833
chicago 31832
read 31831
foundation 31830
view 31829
engine 31828
scored 31827
1982 31826
units 31825
ask 31824
airport 31823
property 31822
ready 31821
immediately 31820
lady 31819
month 31818
listed 31817
contract 31816
##de 31815
manager 31814
themselves 31813
lines 31812
##ki 31811
navy 31810
writer 31809
meant 31808
##ts 31807
runs 31806
##ro 31805
practice 31804
championships 31803
singer 31802
glass 31801
commission 31800
required 31799
forest 31798
starting 31797
culture 31796
generally 31795
giving 31794
access 31793
attended 31792
test 31791
couple 31790
stand 31789
catholic 31788
martin 31787
caught 31786
executive 31785
##less 31784
eye 31783
##ey 31782
thinking 31781
chair 31780
quite 31779
shoulder 31778
1979 31777
hope 31776
decision 31775
plays 31774
defeated 31773
municipality 31772
whether 31771
structure 31770
offered 31769
slowly 31768
pain 31767
ice 31766
direction 31765
##ion 31764
paper 31763
mission 31762
1981 31761
mostly 31760
200 31759
noted 31758
individual 31757
managed 31756
nature 31755
lives 31754
plant 31753
##ha 31752
helped 31751
except 31750
studied 31749
computer 31748
figure 31747
relationship 31746
issue 31745
significant 31744
loss 31743
die 31742
smiled 31741
gun 31740
ago 31739
highest 31738
1972 31737
##am 31736
male 31735
bring 31734
goals 31733
mexico 31732
problem 31731
distance 31730
commercial 31729
completely 31728
location 31727
annual 31726
famous 31725
drive 31724
1976 31723
neck 31722
1978 31721
surface 31720
caused 31719
italy 31718
understand 31717
greek 31716
highway 31715
wrong 31714
hotel 31713
comes 31712
appearance 31711
joseph 31710
double 31709
issues 31708
musical 31707
companies 31706
castle 31705
income 31704
review 31703
assembly 31702
bass 31701
initially 31700
parliament 31699
artists 31698
experience 31697
1974 31696
particular 31695
walk 31694
foot 31693
engineering 31692
talking 31691
window 31690
dropped 31689
##ter 31688
miss 31687
baby 31686
boys 31685
break 31684
1975 31683
stars 31682
edge 31681
remember 31680
policy 31679
carried 31678
train 31677
stadium 31676
bar 31675
sex 31674
angeles 31673
evidence 31672
##ge 31671
becoming 31670
assistant 31669
soviet 31668
1977 31667
upper 31666
step 31665
wing 31664
1970 31663
youth 31662
financial 31661
reach 31660
##ll 31659
actor 31658
numerous 31657
##se 31656
##st 31655
nodded 31654
arrived 31653
##ation 31652
minute 31651
##nt 31650
believed 31649
sorry 31648
complex 31647
beautiful 31646
victory 31645
associated 31644
temple 31643
1968 31642
1973 31641
chance 31640
perhaps 31639
metal 31638
##son 31637
1945 31636
bishop 31635
##et 31634
lee 31633
launched 31632
particularly 31631
tree 31630
le 31629
retired 31628
subject 31627
prize 31626
contains 31625
yeah 31624
theory 31623
empire 31622
##ce 31621
suddenly 31620
waiting 31619
trust 31618
recording 31617
##to 31616
happy 31615
terms 31614
camp 31613
champion 31612
1971 31611
religious 31610
pass 31609
zealand 31608
names 31607
2nd 31606
port 31605
ancient 31604
tom 31603
corner 31602
represented 31601
watch 31600
legal 31599
anti 31598
justice 31597
cause 31596
watched 31595
brothers 31594
45 31593
material 31592
changes 31591
simply 31590
response 31589
louis 31588
fast 31587
##ting 31586
answer 31585
60 31584
historical 31583
1969 31582
stories 31581
straight 31580
create 31579
feature 31578
increased 31577
rate 31576
administration 31575
virginia 31574
el 31573
activities 31572
cultural 31571
overall 31570
winner 31569
programs 31568
basketball 31567
legs 31566
guard 31565
beyond 31564
cast 31563
doctor 31562
mm 31561
flight 31560
results 31559
remains 31558
cost 31557
effect 31556
winter 31555
##ble 31554
larger 31553
islands 31552
problems 31551
chairman 31550
grew 31549
commander 31548
isn 31547
1967 31546
pay 31545
failed 31544
selected 31543
hurt 31542
fort 31541
box 31540
regiment 31539
majority 31538
journal 31537
35 31536
edward 31535
plans 31534
##ke 31533
##ni 31532
shown 31531
pretty 31530
irish 31529
characters 31528
directly 31527
scene 31526
likely 31525
operated 31524
allow 31523
spring 31522
##j 31521
junior 31520
matches 31519
looks 31518
mike 31517
houses 31516
fellow 31515
##tion 31514
beach 31513
marriage 31512
##ham 31511
##ive 31510
rules 31509
oil 31508
65 31507
florida 31506
expected 31505
nearby 31504
congress 31503
sam 31502
peace 31501
recent 31500
iii 31499
wait 31498
subsequently 31497
cell 31496
##do 31495
variety 31494
serving 31493
agreed 31492
please 31491
poor 31490
joe 31489
pacific 31488
attempt 31487
wood 31486
democratic 31485
piece 31484
prime 31483
##ca 31482
rural 31481
mile 31480
touch 31479
appears 31478
township 31477
1964 31476
1966 31475
soldiers 31474
##men 31473
##ized 31472
1965 31471
pennsylvania 31470
closer 31469
fighting 31468
claimed 31467
score 31466
jones 31465
physical 31464
editor 31463
##ous 31462
filled 31461
genus 31460
specific 31459
sitting 31458
super 31457
mom 31456
##va 31455
therefore 31454
supported 31453
status 31452
fear 31451
cases 31450
store 31449
meaning 31448
wales 31447
minor 31446
spain 31445
tower 31444
focus 31443
vice 31442
frank 31441
follow 31440
parish 31439
separate 31438
golden 31437
horse 31436
fifth 31435
remaining 31434
branch 31433
32 31432
presented 31431
stared 31430
##id 31429
uses 31428
secret 31427
forms 31426
##co 31425
baseball 31424
exactly 31423
##ck 31422
choice 31421
note 31420
discovered 31419
travel 31418
composed 31417
truth 31416
russia 31415
ball 31414
color 31413
kiss 31412
dad 31411
wind 31410
continue 31409
ring 31408
referred 31407
numbers 31406
digital 31405
greater 31404
##ns 31403
metres 31402
slightly 31401
direct 31400
increase 31399
1960 31398
responsible 31397
crew 31396
rule 31395
trees 31394
troops 31393
##no 31392
broke 31391
goes 31390
individuals 31389
hundred 31388
weight 31387
creek 31386
sleep 31385
memory 31384
defense 31383
provides 31382
ordered 31381
code 31380
value 31379
jewish 31378
windows 31377
1944 31376
safe 31375
judge 31374
whatever 31373
corps 31372
realized 31371
growing 31370
pre 31369
##ga 31368
cities 31367
alexander 31366
gaze 31365
lies 31364
spread 31363
scott 31362
letter 31361
showed 31360
situation 31359
mayor 31358
transport 31357
watching 31356
workers 31355
extended 31354
##li 31353
expression 31352
normal 31351
##ment 31350
chart 31349
multiple 31348
border 31347
##ba 31346
host 31345
##ner 31344
daily 31343
mrs 31342
walls 31341
piano 31340
##ko 31339
heat 31338
cannot 31337
##ate 31336
earned 31335
products 31334
drama 31333
era 31332
authority 31331
seasons 31330
join 31329
grade 31328
##io 31327
sign 31326
difficult 31325
machine 31324
1963 31323
territory 31322
mainly 31321
##wood 31320
stations 31319
squadron 31318
1962 31317
stepped 31316
iron 31315
19th 31314
##led 31313
serve 31312
appear 31311
sky 31310
speak 31309
broken 31308
charge 31307
knowledge 31306
kilometres 31305
removed 31304
ships 31303
article 31302
campus 31301
simple 31300
##ty 31299
pushed 31298
britain 31297
##ve 31296
leaves 31295
recently 31294
cd 31293
soft 31292
boston 31291
latter 31290
easy 31289
acquired 31288
poland 31287
##sa 31286
quality 31285
officers 31284
presence 31283
planned 31282
nations 31281
mass 31280
broadcast 31279
jean 31278
share 31277
image 31276
influence 31275
wild 31274
offer 31273
emperor 31272
electric 31271
reading 31270
headed 31269
ability 31268
promoted 31267
yellow 31266
ministry 31265
1942 31264
throat 31263
smaller 31262
politician 31261
##by 31260
latin 31259
spoke 31258
cars 31257
williams 31256
males 31255
lack 31254
pop 31253
80 31252
##ier 31251
acting 31250
seeing 31249
consists 31248
##ti 31247
estate 31246
1961 31245
pressure 31244
johnson 31243
newspaper 31242
jr 31241
chris 31240
olympics 31239
online 31238
conditions 31237
beat 31236
elements 31235
walking 31234
vote 31233
##field 31232
needs 31231
carolina 31230
text 31229
featuring 31228
global 31227
block 31226
shirt 31225
levels 31224
francisco 31223
purpose 31222
females 31221
et 31220
dutch 31219
duke 31218
ahead 31217
gas 31216
twice 31215
safety 31214
serious 31213
turning 31212
highly 31211
lieutenant 31210
firm 31209
maria 31208
amount 31207
mixed 31206
daniel 31205
proposed 31204
perfect 31203
agreement 31202
affairs 31201
3rd 31200
seconds 31199
contemporary 31198
paid 31197
1943 31196
prison 31195
save 31194
kitchen 31193
label 31192
administrative 31191
intended 31190
constructed 31189
academic 31188
nice 31187
teacher 31186
races 31185
1956 31184
formerly 31183
corporation 31182
ben 31181
nation 31180
issued 31179
shut 31178
1958 31177
drums 31176
housing 31175
victoria 31174
seems 31173
opera 31172
1959 31171
graduated 31170
function 31169
von 31168
mentioned 31167
picked 31166
build 31165
recognized 31164
shortly 31163
protection 31162
picture 31161
notable 31160
exchange 31159
elections 31158
1980s 31157
loved 31156
percent 31155
racing 31154
fish 31153
elizabeth 31152
garden 31151
volume 31150
hockey 31149
1941 31148
beside 31147
settled 31146
##ford 31145
1940 31144
competed 31143
replied 31142
drew 31141
1948 31140
actress 31139
marine 31138
scotland 31137
steel 31136
glanced 31135
farm 31134
steve 31133
1957 31132
risk 31131
tonight 31130
positive 31129
magic 31128
singles 31127
effects 31126
gray 31125
screen 31124
dog 31123
##ja 31122
residents 31121
bus 31120
sides 31119
none 31118
secondary 31117
literature 31116
polish 31115
destroyed 31114
flying 31113
founder 31112
households 31111
1939 31110
lay 31109
reserve 31108
usa 31107
gallery 31106
##ler 31105
1946 31104
industrial 31103
younger 31102
approach 31101
appearances 31100
urban 31099
ones 31098
1950 31097
finish 31096
avenue 31095
powerful 31094
fully 31093
growth 31092
page 31091
honor 31090
jersey 31089
projects 31088
advanced 31087
revealed 31086
basic 31085
90 31084
infantry 31083
pair 31082
equipment 31081
visit 31080
33 31079
evening 31078
search 31077
grant 31076
effort 31075
solo 31074
treatment 31073
buried 31072
republican 31071
primarily 31070
bottom 31069
owner 31068
1970s 31067
israel 31066
gives 31065
jim 31064
dream 31063
bob 31062
remain 31061
spot 31060
70 31059
notes 31058
produce 31057
champions 31056
contact 31055
ed 31054
soul 31053
accepted 31052
ways 31051
del 31050
##ally 31049
losing 31048
split 31047
price 31046
capacity 31045
basis 31044
trial 31043
questions 31042
##ina 31041
1955 31040
20th 31039
guess 31038
officially 31037
memorial 31036
naval 31035
initial 31034
##ization 31033
whispered 31032
median 31031
engineer 31030
##ful 31029
sydney 31028
##go 31027
columbia 31026
strength 31025
300 31024
1952 31023
tears 31022
senate 31021
00 31020
card 31019
asian 31018
agent 31017
1947 31016
software 31015
44 31014
draw 31013
warm 31012
supposed 31011
com 31010
pro 31009
##il 31008
transferred 31007
leaned 31006
##at 31005
candidate 31004
escape 31003
mountains 31002
asia 31001
potential 31000
activity 30999
entertainment 30998
seem 30997
traffic 30996
jackson 30995
murder 30994
36 30993
slow 30992
product 30991
orchestra 30990
haven 30989
agency 30988
bbc 30987
taught 30986
website 30985
comedy 30984
unable 30983
storm 30982
planning 30981
albums 30980
rugby 30979
environment 30978
scientific 30977
grabbed 30976
protect 30975
##hi 30974
boat 30973
typically 30972
1954 30971
1953 30970
damage 30969
principal 30968
divided 30967
dedicated 30966
mount 30965
ohio 30964
##berg 30963
pick 30962
fought 30961
driver 30960
##der 30959
empty 30958
shoulders 30957
sort 30956
thank 30955
berlin 30954
prominent 30953
account 30952
freedom 30951
necessary 30950
efforts 30949
alex 30948
headquarters 30947
follows 30946
alongside 30945
des 30944
simon 30943
andrew 30942
suggested 30941
operating 30940
learning 30939
steps 30938
1949 30937
sweet 30936
technical 30935
begin 30934
easily 30933
34 30932
teeth 30931
speaking 30930
settlement 30929
scale 30928
##sh 30927
renamed 30926
ray 30925
max 30924
enemy 30923
semi 30922
joint 30921
compared 30920
##rd 30919
scottish 30918
leadership 30917
analysis 30916
offers 30915
georgia 30914
pieces 30913
captured 30912
animal 30911
deputy 30910
guest 30909
organized 30908
##lin 30907
tony 30906
combined 30905
method 30904
challenge 30903
1960s 30902
huge 30901
wants 30900
battalion 30899
sons 30898
rise 30897
crime 30896
types 30895
facilities 30894
telling 30893
path 30892
1951 30891
platform 30890
sit 30889
1990s 30888
##lo 30887
tells 30886
assigned 30885
rich 30884
pull 30883
##ot 30882
commonly 30881
alive 30880
##za 30879
letters 30878
concept 30877
conducted 30876
wearing 30875
happen 30874
bought 30873
becomes 30872
holy 30871
gets 30870
ocean 30869
defeat 30868
languages 30867
purchased 30866
coffee 30865
occurred 30864
titled 30863
##q 30862
declared 30861
applied 30860
sciences 30859
concert 30858
sounds 30857
jazz 30856
brain 30855
##me 30854
painting 30853
fleet 30852
tax 30851
nick 30850
##ius 30849
michigan 30848
count 30847
animals 30846
leaders 30845
episodes 30844
##line 30843
content 30842
##den 30841
birth 30840
##it 30839
clubs 30838
64 30837
palace 30836
critical 30835
refused 30834
fair 30833
leg 30832
laughed 30831
returning 30830
surrounding 30829
participated 30828
formation 30827
lifted 30826
pointed 30825
connected 30824
rome 30823
medicine 30822
laid 30821
taylor 30820
santa 30819
powers 30818
adam 30817
tall 30816
shared 30815
focused 30814
knowing 30813
yards 30812
entrance 30811
falls 30810
##wa 30809
calling 30808
##ad 30807
sources 30806
chosen 30805
beneath 30804
resources 30803
yard 30802
##ite 30801
nominated 30800
silence 30799
zone 30798
defined 30797
##que 30796
gained 30795
thirty 30794
38 30793
bodies 30792
moon 30791
##ard 30790
adopted 30789
christmas 30788
widely 30787
register 30786
apart 30785
iran 30784
premier 30783
serves 30782
du 30781
unknown 30780
parties 30779
##les 30778
generation 30777
##ff 30776
continues 30775
quick 30774
fields 30773
brigade 30772
quiet 30771
teaching 30770
clothes 30769
impact 30768
weapons 30767
partner 30766
flat 30765
theater 30764
supreme 30763
1938 30762
37 30761
relations 30760
##tor 30759
plants 30758
suffered 30757
1936 30756
wilson 30755
kids 30754
begins 30753
##age 30752
1918 30751
seats 30750
armed 30749
internet 30748
models 30747
worth 30746
laws 30745
400 30744
communities 30743
classes 30742
background 30741
knows 30740
thanks 30739
quarter 30738
reaching 30737
humans 30736
carry 30735
killing 30734
format 30733
kong 30732
hong 30731
setting 30730
75 30729
architecture 30728
disease 30727
railroad 30726
inc 30725
possibly 30724
wish 30723
arthur 30722
thoughts 30721
harry 30720
doors 30719
density 30718
##di 30717
crowd 30716
illinois 30715
stomach 30714
tone 30713
unique 30712
reports 30711
anyway 30710
##ir 30709
liberal 30708
der 30707
vehicle 30706
thick 30705
dry 30704
drug 30703
faced 30702
largely 30701
facility 30700
theme 30699
holds 30698
creation 30697
strange 30696
colonel 30695
##mi 30694
revolution 30693
bell 30692
politics 30691
turns 30690
silent 30689
rail 30688
relief 30687
independence 30686
combat 30685
shape 30684
write 30683
determined 30682
sales 30681
learned 30680
4th 30679
finger 30678
oxford 30677
providing 30676
1937 30675
heritage 30674
fiction 30673
situated 30672
designated 30671
allowing 30670
distribution 30669
hosted 30668
##est 30667
sight 30666
interview 30665
estimated 30664
reduced 30663
##ria 30662
toronto 30661
footballer 30660
keeping 30659
guys 30658
damn 30657
claim 30656
motion 30655
sport 30654
sixth 30653
stayed 30652
##ze 30651
en 30650
rear 30649
receive 30648
handed 30647
twelve 30646
dress 30645
audience 30644
granted 30643
brazil 30642
##well 30641
spirit 30640
##ated 30639
noticed 30638
etc 30637
olympic 30636
representative 30635
eric 30634
tight 30633
trouble 30632
reviews 30631
drink 30630
vampire 30629
missing 30628
roles 30627
ranked 30626
newly 30625
household 30624
finals 30623
wave 30622
critics 30621
##ee 30620
phase 30619
massachusetts 30618
pilot 30617
unlike 30616
philadelphia 30615
bright 30614
guns 30613
crown 30612
organizations 30611
roof 30610
42 30609
respectively 30608
clearly 30607
tongue 30606
marked 30605
circle 30604
fox 30603
korea 30602
bronze 30601
brian 30600
expanded 30599
sexual 30598
supply 30597
yourself 30596
inspired 30595
labour 30594
fc 30593
##ah 30592
reference 30591
vision 30590
draft 30589
connection 30588
brand 30587
reasons 30586
1935 30585
classic 30584
driving 30583
trip 30582
jesus 30581
cells 30580
entry 30579
1920 30578
neither 30577
trail 30576
claims 30575
atlantic 30574
orders 30573
labor 30572
nose 30571
afraid 30570
identified 30569
intelligence 30568
calls 30567
cancer 30566
attacked 30565
passing 30564
stephen 30563
positions 30562
imperial 30561
grey 30560
jason 30559
39 30558
sunday 30557
48 30556
swedish 30555
avoid 30554
extra 30553
uncle 30552
message 30551
covers 30550
allows 30549
surprise 30548
materials 30547
fame 30546
hunter 30545
##ji 30544
1930 30543
citizens 30542
figures 30541
davis 30540
environmental 30539
confirmed 30538
shit 30537
titles 30536
di 30535
performing 30534
difference 30533
acts 30532
attacks 30531
##ov 30530
existing 30529
votes 30528
opportunity 30527
nor 30526
shop 30525
entirely 30524
trains 30523
opposite 30522
pakistan 30521
##pa 30520
develop 30519
resulted 30518
representatives 30517
actions 30516
reality 30515
pressed 30514
##ish 30513
barely 30512
wine 30511
conversation 30510
faculty 30509
northwest 30508
ends 30507
documentary 30506
nuclear 30505
stock 30504
grace 30503
sets 30502
eat 30501
alternative 30500
##ps 30499
bag 30498
resulting 30497
creating 30496
surprised 30495
cemetery 30494
1919 30493
drop 30492
finding 30491
sarah 30490
cricket 30489
streets 30488
tradition 30487
ride 30486
1933 30485
exhibition 30484
target 30483
ear 30482
explained 30481
rain 30480
composer 30479
injury 30478
apartment 30477
municipal 30476
educational 30475
occupied 30474
netherlands 30473
clean 30472
billion 30471
constitution 30470
learn 30469
1914 30468
maximum 30467
classical 30466
francis 30465
lose 30464
opposition 30463
jose 30462
ontario 30461
bear 30460
core 30459
hills 30458
rolled 30457
ending 30456
drawn 30455
permanent 30454
fun 30453
##tes 30452
##lla 30451
lewis 30450
sites 30449
chamber 30448
ryan 30447
##way 30446
scoring 30445
height 30444
1934 30443
##house 30442
lyrics 30441
staring 30440
55 30439
officials 30438
1917 30437
snow 30436
oldest 30435
##tic 30434
orange 30433
##ger 30432
qualified 30431
interior 30430
apparently 30429
succeeded 30428
thousand 30427
dinner 30426
lights 30425
existence 30424
fans 30423
heavily 30422
41 30421
greatest 30420
conservative 30419
send 30418
bowl 30417
plus 30416
enter 30415
catch 30414
##un 30413
economy 30412
duty 30411
1929 30410
speech 30409
authorities 30408
princess 30407
performances 30406
versions 30405
shall 30404
graduate 30403
pictures 30402
effective 30401
remembered 30400
poetry 30399
desk 30398
crossed 30397
starring 30396
starts 30395
passenger 30394
sharp 30393
##ant 30392
acres 30391
ass 30390
weather 30389
falling 30388
rank 30387
fund 30386
supporting 30385
check 30384
adult 30383
publishing 30382
heads 30381
cm 30380
southeast 30379
lane 30378
##burg 30377
application 30376
bc 30375
##ura 30374
les 30373
condition 30372
transfer 30371
prevent 30370
display 30369
ex 30368
regions 30367
earl 30366
federation 30365
cool 30364
relatively 30363
answered 30362
besides 30361
1928 30360
obtained 30359
portion 30358
##town 30357
mix 30356
##ding 30355
reaction 30354
liked 30353
dean 30352
express 30351
peak 30350
1932 30349
##tte 30348
counter 30347
religion 30346
chain 30345
rare 30344
miller 30343
convention 30342
aid 30341
lie 30340
vehicles 30339
mobile 30338
perform 30337
squad 30336
wonder 30335
lying 30334
crazy 30333
sword 30332
##ping 30331
attempted 30330
centuries 30329
weren 30328
philosophy 30327
category 30326
##ize 30325
anna 30324
interested 30323
47 30322
sweden 30321
wolf 30320
frequently 30319
abandoned 30318
kg 30317
literary 30316
alliance 30315
task 30314
entitled 30313
##ay 30312
threw 30311
promotion 30310
factory 30309
tiny 30308
soccer 30307
visited 30306
matt 30305
fm 30304
achieved 30303
52 30302
defence 30301
internal 30300
persian 30299
43 30298
methods 30297
##ging 30296
arrested 30295
otherwise 30294
cambridge 30293
programming 30292
villages 30291
elementary 30290
districts 30289
rooms 30288
criminal 30287
conflict 30286
worry 30285
trained 30284
1931 30283
attempts 30282
waited 30281
signal 30280
bird 30279
truck 30278
subsequent 30277
programme 30276
##ol 30275
ad 30274
49 30273
communist 30272
details 30271
faith 30270
sector 30269
patrick 30268
carrying 30267
laugh 30266
##ss 30265
controlled 30264
korean 30263
showing 30262
origin 30261
fuel 30260
evil 30259
1927 30258
##ent 30257
brief 30256
identity 30255
darkness 30254
address 30253
pool 30252
missed 30251
publication 30250
web 30249
planet 30248
ian 30247
anne 30246
wings 30245
invited 30244
##tt 30243
briefly 30242
standards 30241
kissed 30240
##be 30239
ideas 30238
climate 30237
causing 30236
walter 30235
worse 30234
albert 30233
articles 30232
winners 30231
desire 30230
aged 30229
northeast 30228
dangerous 30227
gate 30226
doubt 30225
1922 30224
wooden 30223
multi 30222
##ky 30221
poet 30220
rising 30219
funding 30218
46 30217
communications 30216
communication 30215
violence 30214
copies 30213
prepared 30212
ford 30211
investigation 30210
skills 30209
1924 30208
pulling 30207
electronic 30206
##ak 30205
##ial 30204
##han 30203
containing 30202
ultimately 30201
offices 30200
singing 30199
understanding 30198
restaurant 30197
tomorrow 30196
fashion 30195
christ 30194
ward 30193
da 30192
pope 30191
stands 30190
5th 30189
flow 30188
studios 30187
aired 30186
commissioned 30185
contained 30184
exist 30183
fresh 30182
americans 30181
##per 30180
wrestling 30179
approved 30178
kid 30177
employed 30176
respect 30175
suit 30174
1925 30173
angel 30172
asking 30171
increasing 30170
frame 30169
angry 30168
selling 30167
1950s 30166
thin 30165
finds 30164
##nd 30163
temperature 30162
statement 30161
ali 30160
explain 30159
inhabitants 30158
towns 30157
extensive 30156
narrow 30155
51 30154
jane 30153
flowers 30152
images 30151
promise 30150
somewhere 30149
object 30148
fly 30147
closely 30146
##ls 30145
1912 30144
bureau 30143
cape 30142
1926 30141
weekly 30140
presidential 30139
legislative 30138
1921 30137
##ai 30136
##au 30135
launch 30134
founding 30133
##ny 30132
978 30131
##ring 30130
artillery 30129
strike 30128
un 30127
institutions 30126
roll 30125
writers 30124
landing 30123
chose 30122
kevin 30121
anymore 30120
pp 30119
##ut 30118
attorney 30117
fit 30116
dan 30115
billboard 30114
receiving 30113
agricultural 30112
breaking 30111
sought 30110
dave 30109
admitted 30108
lands 30107
mexican 30106
##bury 30105
charlie 30104
specifically 30103
hole 30102
iv 30101
howard 30100
credit 30099
moscow 30098
roads 30097
accident 30096
1923 30095
proved 30094
wear 30093
struck 30092
hey 30091
guards 30090
stuff 30089
slid 30088
expansion 30087
1915 30086
cat 30085
anthony 30084
##kin 30083
melbourne 30082
opposed 30081
sub 30080
southwest 30079
architect 30078
failure 30077
plane 30076
1916 30075
##ron 30074
map 30073
camera 30072
tank 30071
listen 30070
regarding 30069
wet 30068
introduction 30067
metropolitan 30066
link 30065
ep 30064
fighter 30063
inch 30062
grown 30061
gene 30060
anger 30059
fixed 30058
buy 30057
dvd 30056
khan 30055
domestic 30054
worldwide 30053
chapel 30052
mill 30051
functions 30050
examples 30049
##head 30048
developing 30047
1910 30046
turkey 30045
hits 30044
pocket 30043
antonio 30042
papers 30041
grow 30040
unless 30039
circuit 30038
18th 30037
concerned 30036
attached 30035
journalist 30034
selection 30033
journey 30032
converted 30031
provincial 30030
painted 30029
hearing 30028
aren 30027
bands 30026
negative 30025
aside 30024
wondered 30023
knight 30022
lap 30021
survey 30020
ma 30019
##ow 30018
noise 30017
billy 30016
##ium 30015
shooting 30014
guide 30013
bedroom 30012
priest 30011
resistance 30010
motor 30009
homes 30008
sounded 30007
giant 30006
##mer 30005
150 30004
scenes 30003
equal 30002
comic 30001
patients 30000
hidden 29999
solid 29998
actual 29997
bringing 29996
afternoon 29995
touched 29994
funds 29993
wedding 29992
consisted 29991
marie 29990
canal 29989
sr 29988
kim 29987
treaty 29986
turkish 29985
recognition 29984
residence 29983
cathedral 29982
broad 29981
knees 29980
incident 29979
shaped 29978
fired 29977
norwegian 29976
handle 29975
cheek 29974
contest 29973
represent 29972
##pe 29971
representing 29970
beauty 29969
##sen 29968
birds 29967
advantage 29966
emergency 29965
wrapped 29964
drawing 29963
notice 29962
pink 29961
broadcasting 29960
##ong 29959
somehow 29958
bachelor 29957
seventh 29956
collected 29955
registered 29954
establishment 29953
alan 29952
assumed 29951
chemical 29950
personnel 29949
roger 29948
retirement 29947
jeff 29946
portuguese 29945
wore 29944
tied 29943
device 29942
threat 29941
progress 29940
advance 29939
##ised 29938
banks 29937
hired 29936
manchester 29935
nfl 29934
teachers 29933
structures 29932
forever 29931
##bo 29930
tennis 29929
helping 29928
saturday 29927
sale 29926
applications 29925
junction 29924
hip 29923
incorporated 29922
neighborhood 29921
dressed 29920
ceremony 29919
##ds 29918
influenced 29917
hers 29916
visual 29915
stairs 29914
decades 29913
inner 29912
kansas 29911
hung 29910
hoped 29909
gain 29908
scheduled 29907
downtown 29906
engaged 29905
austria 29904
clock 29903
norway 29902
certainly 29901
pale 29900
protected 29899
1913 29898
victor 29897
employees 29896
plate 29895
putting 29894
surrounded 29893
##ists 29892
finishing 29891
blues 29890
tropical 29889
##ries 29888
minnesota 29887
consider 29886
philippines 29885
accept 29884
54 29883
retrieved 29882
1900 29881
concern 29880
anderson 29879
properties 29878
institution 29877
gordon 29876
successfully 29875
vietnam 29874
##dy 29873
backing 29872
outstanding 29871
muslim 29870
crossing 29869
folk 29868
producing 29867
usual 29866
demand 29865
occurs 29864
observed 29863
lawyer 29862
educated 29861
##ana 29860
kelly 29859
string 29858
pleasure 29857
budget 29856
items 29855
quietly 29854
colorado 29853
philip 29852
typical 29851
##worth 29850
derived 29849
600 29848
survived 29847
asks 29846
mental 29845
##ide 29844
56 29843
jake 29842
jews 29841
distinguished 29840
ltd 29839
1911 29838
sri 29837
extremely 29836
53 29835
athletic 29834
loud 29833
thousands 29832
worried 29831
shadow 29830
transportation 29829
horses 29828
weapon 29827
arena 29826
importance 29825
users 29824
tim 29823
objects 29822
contributed 29821
dragon 29820
douglas 29819
aware 29818
senator 29817
johnny 29816
jordan 29815
sisters 29814
engines 29813
flag 29812
investment 29811
samuel 29810
shock 29809
capable 29808
clark 29807
row 29806
wheel 29805
refers 29804
session 29803
familiar 29802
biggest 29801
wins 29800
hate 29799
maintained 29798
drove 29797
hamilton 29796
request 29795
expressed 29794
injured 29793
underground 29792
churches 29791
walker 29790
wars 29789
tunnel 29788
passes 29787
stupid 29786
agriculture 29785
softly 29784
cabinet 29783
regarded 29782
joining 29781
indiana 29780
##ea 29779
##ms 29778
push 29777
dates 29776
spend 29775
behavior 29774
woods 29773
protein 29772
gently 29771
chase 29770
morgan 29769
mention 29768
burning 29767
wake 29766
combination 29765
occur 29764
mirror 29763
leads 29762
jimmy 29761
indeed 29760
impossible 29759
singapore 29758
paintings 29757
covering 29756
##nes 29755
soldier 29754
locations 29753
attendance 29752
sell 29751
historian 29750
wisconsin 29749
invasion 29748
argued 29747
painter 29746
diego 29745
changing 29744
egypt 29743
##don 29742
experienced 29741
inches 29740
##ku 29739
missouri 29738
vol 29737
grounds 29736
spoken 29735
switzerland 29734
##gan 29733
reform 29732
rolling 29731
ha 29730
forget 29729
massive 29728
resigned 29727
burned 29726
allen 29725
tennessee 29724
locked 29723
values 29722
improved 29721
##mo 29720
wounded 29719
universe 29718
sick 29717
dating 29716
facing 29715
pack 29714
purchase 29713
user 29712
##pur 29711
moments 29710
##ul 29709
merged 29708
anniversary 29707
1908 29706
coal 29705
brick 29704
understood 29703
causes 29702
dynasty 29701
queensland 29700
establish 29699
stores 29698
crisis 29697
promote 29696
hoping 29695
views 29694
cards 29693
referee 29692
extension 29691
##si 29690
raise 29689
arizona 29688
improve 29687
colonial 29686
formal 29685
charged 29684
##rt 29683
palm 29682
lucky 29681
hide 29680
rescue 29679
faces 29678
95 29677
feelings 29676
candidates 29675
juan 29674
##ell 29673
goods 29672
6th 29671
courses 29670
weekend 29669
59 29668
luke 29667
cash 29666
fallen 29665
##om 29664
delivered 29663
affected 29662
installed 29661
carefully 29660
tries 29659
swiss 29658
hollywood 29657
costs 29656
lincoln 29655
responsibility 29654
##he 29653
shore 29652
file 29651
proper 29650
normally 29649
maryland 29648
assistance 29647
jump 29646
constant 29645
offering 29644
friendly 29643
waters 29642
persons 29641
realize 29640
contain 29639
trophy 29638
800 29637
partnership 29636
factor 29635
58 29634
musicians 29633
cry 29632
bound 29631
oregon 29630
indicated 29629
hero 29628
houston 29627
medium 29626
##ure 29625
consisting 29624
somewhat 29623
##ara 29622
57 29621
cycle 29620
##che 29619
beer 29618
moore 29617
frederick 29616
gotten 29615
eleven 29614
worst 29613
weak 29612
approached 29611
arranged 29610
chin 29609
loan 29608
universal 29607
bond 29606
fifteen 29605
pattern 29604
disappeared 29603
##ney 29602
translated 29601
##zed 29600
lip 29599
arab 29598
capture 29597
interests 29596
insurance 29595
##chi 29594
shifted 29593
cave 29592
prix 29591
warning 29590
sections 29589
courts 29588
coat 29587
plot 29586
smell 29585
feed 29584
golf 29583
favorite 29582
maintain 29581
knife 29580
vs 29579
voted 29578
degrees 29577
finance 29576
quebec 29575
opinion 29574
translation 29573
manner 29572
ruled 29571
operate 29570
productions 29569
choose 29568
musician 29567
discovery 29566
confused 29565
tired 29564
separated 29563
stream 29562
techniques 29561
committed 29560
attend 29559
ranking 29558
kings 29557
throw 29556
passengers 29555
measure 29554
horror 29553
fan 29552
mining 29551
sand 29550
danger 29549
salt 29548
calm 29547
decade 29546
dam 29545
require 29544
runner 29543
##ik 29542
rush 29541
associate 29540
greece 29539
##ker 29538
rivers 29537
consecutive 29536
matthew 29535
##ski 29534
sighed 29533
sq 29532
documents 29531
steam 29530
edited 29529
closing 29528
tie 29527
accused 29526
1905 29525
##ini 29524
islamic 29523
distributed 29522
directors 29521
organisation 29520
bruce 29519
7th 29518
breathing 29517
mad 29516
lit 29515
arrival 29514
concrete 29513
taste 29512
08 29511
composition 29510
shaking 29509
faster 29508
amateur 29507
adjacent 29506
stating 29505
1906 29504
twin 29503
flew 29502
##ran 29501
tokyo 29500
publications 29499
##tone 29498
obviously 29497
ridge 29496
storage 29495
1907 29494
carl 29493
pages 29492
concluded 29491
desert 29490
driven 29489
universities 29488
ages 29487
terminal 29486
sequence 29485
borough 29484
250 29483
constituency 29482
creative 29481
cousin 29480
economics 29479
dreams 29478
margaret 29477
notably 29476
reduce 29475
montreal 29474
mode 29473
17th 29472
ears 29471
saved 29470
jan 29469
vocal 29468
##ica 29467
1909 29466
andy 29465
##jo 29464
riding 29463
roughly 29462
threatened 29461
##ise 29460
meters 29459
meanwhile 29458
landed 29457
compete 29456
repeated 29455
grass 29454
czech 29453
regularly 29452
charges 29451
tea 29450
sudden 29449
appeal 29448
##ung 29447
solution 29446
describes 29445
pierre 29444
classification 29443
glad 29442
parking 29441
##ning 29440
belt 29439
physics 29438
99 29437
rachel 29436
add 29435
hungarian 29434
participate 29433
expedition 29432
damaged 29431
gift 29430
childhood 29429
85 29428
fifty 29427
##red 29426
mathematics 29425
jumped 29424
letting 29423
defensive 29422
mph 29421
##ux 29420
##gh 29419
testing 29418
##hip 29417
hundreds 29416
shoot 29415
owners 29414
matters 29413
smoke 29412
israeli 29411
kentucky 29410
dancing 29409
mounted 29408
grandfather 29407
emma 29406
designs 29405
profit 29404
argentina 29403
##gs 29402
truly 29401
li 29400
lawrence 29399
cole 29398
begun 29397
detroit 29396
willing 29395
branches 29394
smiling 29393
decide 29392
miami 29391
enjoyed 29390
recordings 29389
##dale 29388
poverty 29387
ethnic 29386
gay 29385
##bi 29384
gary 29383
arabic 29382
09 29381
accompanied 29380
##one 29379
##ons 29378
fishing 29377
determine 29376
residential 29375
acid 29374
##ary 29373
alice 29372
returns 29371
starred 29370
mail 29369
##ang 29368
jonathan 29367
strategy 29366
##ue 29365
net 29364
forty 29363
cook 29362
businesses 29361
equivalent 29360
commonwealth 29359
distinct 29358
ill 29357
##cy 29356
seriously 29355
##ors 29354
##ped 29353
shift 29352
harris 29351
replace 29350
rio 29349
imagine 29348
formula 29347
ensure 29346
##ber 29345
additionally 29344
scheme 29343
conservation 29342
occasionally 29341
purposes 29340
feels 29339
favor 29338
##and 29337
##ore 29336
1930s 29335
contrast 29334
hanging 29333
hunt 29332
movies 29331
1904 29330
instruments 29329
victims 29328
danish 29327
christopher 29326
busy 29325
demon 29324
sugar 29323
earliest 29322
colony 29321
studying 29320
balance 29319
duties 29318
##ks 29317
belgium 29316
slipped 29315
carter 29314
05 29313
visible 29312
stages 29311
iraq 29310
fifa 29309
##im 29308
commune 29307
forming 29306
zero 29305
07 29304
continuing 29303
talked 29302
counties 29301
legend 29300
bathroom 29299
option 29298
tail 29297
clay 29296
daughters 29295
afterwards 29294
severe 29293
jaw 29292
visitors 29291
##ded 29290
devices 29289
aviation 29288
russell 29287
kate 29286
##vi 29285
entering 29284
subjects 29283
##ino 29282
temporary 29281
swimming 29280
forth 29279
smooth 29278
ghost 29277
audio 29276
bush 29275
operates 29274
rocks 29273
movements 29272
signs 29271
eddie 29270
##tz 29269
ann 29268
voices 29267
honorary 29266
06 29265
memories 29264
dallas 29263
pure 29262
measures 29261
racial 29260
promised 29259
66 29258
harvard 29257
ceo 29256
16th 29255
parliamentary 29254
indicate 29253
benefit 29252
flesh 29251
dublin 29250
louisiana 29249
1902 29248
1901 29247
patient 29246
sleeping 29245
1903 29244
membership 29243
coastal 29242
medieval 29241
wanting 29240
element 29239
scholars 29238
rice 29237
62 29236
limit 29235
survive 29234
makeup 29233
rating 29232
definitely 29231
collaboration 29230
obvious 29229
##tan 29228
boss 29227
ms 29226
baron 29225
birthday 29224
linked 29223
soil 29222
diocese 29221
##lan 29220
ncaa 29219
##mann 29218
offensive 29217
shell 29216
shouldn 29215
waist 29214
##tus 29213
plain 29212
ross 29211
organ 29210
resolution 29209
manufacturing 29208
adding 29207
relative 29206
kennedy 29205
98 29204
whilst 29203
moth 29202
marketing 29201
gardens 29200
crash 29199
72 29198
heading 29197
partners 29196
credited 29195
carlos 29194
moves 29193
cable 29192
##zi 29191
marshall 29190
##out 29189
depending 29188
bottle 29187
represents 29186
rejected 29185
responded 29184
existed 29183
04 29182
jobs 29181
denmark 29180
lock 29179
##ating 29178
treated 29177
graham 29176
routes 29175
talent 29174
commissioner 29173
drugs 29172
secure 29171
tests 29170
reign 29169
restored 29168
photography 29167
##gi 29166
contributions 29165
oklahoma 29164
designer 29163
disc 29162
grin 29161
seattle 29160
robin 29159
paused 29158
atlanta 29157
unusual 29156
##gate 29155
praised 29154
las 29153
laughing 29152
satellite 29151
hungary 29150
visiting 29149
##sky 29148
interesting 29147
factors 29146
deck 29145
poems 29144
norman 29143
##water 29142
stuck 29141
speaker 29140
rifle 29139
domain 29138
premiered 29137
##her 29136
dc 29135
comics 29134
actors 29133
01 29132
reputation 29131
eliminated 29130
8th 29129
ceiling 29128
prisoners 29127
script 29126
##nce 29125
leather 29124
austin 29123
mississippi 29122
rapidly 29121
admiral 29120
parallel 29119
charlotte 29118
guilty 29117
tools 29116
gender 29115
divisions 29114
fruit 29113
##bs 29112
laboratory 29111
nelson 29110
fantasy 29109
marry 29108
rapid 29107
aunt 29106
tribe 29105
requirements 29104
aspects 29103
suicide 29102
amongst 29101
adams 29100
bone 29099
ukraine 29098
abc 29097
kick 29096
sees 29095
edinburgh 29094
clothing 29093
column 29092
rough 29091
gods 29090
hunting 29089
broadway 29088
gathered 29087
concerns 29086
##ek 29085
spending 29084
ty 29083
12th 29082
snapped 29081
requires 29080
solar 29079
bones 29078
cavalry 29077
##tta 29076
iowa 29075
drinking 29074
waste 29073
index 29072
franklin 29071
charity 29070
thompson 29069
stewart 29068
tip 29067
flash 29066
landscape 29065
friday 29064
enjoy 29063
singh 29062
poem 29061
listening 29060
##back 29059
eighth 29058
fred 29057
differences 29056
adapted 29055
bomb 29054
ukrainian 29053
surgery 29052
corporate 29051
masters 29050
anywhere 29049
##more 29048
waves 29047
odd 29046
sean 29045
portugal 29044
orleans 29043
dick 29042
debate 29041
kent 29040
eating 29039
puerto 29038
cleared 29037
96 29036
expect 29035
cinema 29034
97 29033
guitarist 29032
blocks 29031
electrical 29030
agree 29029
involving 29028
depth 29027
dying 29026
panel 29025
struggle 29024
##ged 29023
peninsula 29022
adults 29021
novels 29020
emerged 29019
vienna 29018
metro 29017
debuted 29016
shoes 29015
tamil 29014
songwriter 29013
meets 29012
prove 29011
beating 29010
instance 29009
heaven 29008
scared 29007
sending 29006
marks 29005
artistic 29004
passage 29003
superior 29002
03 29001
significantly 29000
shopping 28999
##tive 28998
retained 28997
##izing 28996
malaysia 28995
technique 28994
cheeks 28993
##ola 28992
warren 28991
maintenance 28990
destroy 28989
extreme 28988
allied 28987
120 28986
appearing 28985
##yn 28984
fill 28983
advice 28982
alabama 28981
qualifying 28980
policies 28979
cleveland 28978
hat 28977
battery 28976
smart 28975
authors 28974
10th 28973
soundtrack 28972
acted 28971
dated 28970
lb 28969
glance 28968
equipped 28967
coalition 28966
funny 28965
outer 28964
ambassador 28963
roy 28962
possibility 28961
couples 28960
campbell 28959
dna 28958
loose 28957
ethan 28956
supplies 28955
1898 28954
gonna 28953
88 28952
monster 28951
##res 28950
shake 28949
agents 28948
frequency 28947
springs 28946
dogs 28945
practices 28944
61 28943
gang 28942
plastic 28941
easier 28940
suggests 28939
gulf 28938
blade 28937
exposed 28936
colors 28935
industries 28934
markets 28933
pan 28932
nervous 28931
electoral 28930
charts 28929
legislation 28928
ownership 28927
##idae 28926
mac 28925
appointment 28924
shield 28923
copy 28922
assault 28921
socialist 28920
abbey 28919
monument 28918
license 28917
throne 28916
employment 28915
jay 28914
93 28913
replacement 28912
charter 28911
cloud 28910
powered 28909
suffering 28908
accounts 28907
oak 28906
connecticut 28905
strongly 28904
wright 28903
colour 28902
crystal 28901
13th 28900
context 28899
welsh 28898
networks 28897
voiced 28896
gabriel 28895
jerry 28894
##cing 28893
forehead 28892
mp 28891
##ens 28890
manage 28889
schedule 28888
totally 28887
remix 28886
##ii 28885
forests 28884
occupation 28883
print 28882
nicholas 28881
brazilian 28880
strategic 28879
vampires 28878
engineers 28877
76 28876
roots 28875
seek 28874
correct 28873
instrumental 28872
und 28871
alfred 28870
backed 28869
hop 28868
##des 28867
stanley 28866
robinson 28865
traveled 28864
wayne 28863
welcome 28862
austrian 28861
achieve 28860
67 28859
exit 28858
rates 28857
1899 28856
strip 28855
whereas 28854
##cs 28853
sing 28852
deeply 28851
adventure 28850
bobby 28849
rick 28848
jamie 28847
careful 28846
components 28845
cap 28844
useful 28843
personality 28842
knee 28841
##shi 28840
pushing 28839
hosts 28838
02 28837
protest 28836
ca 28835
ottoman 28834
symphony 28833
##sis 28832
63 28831
boundary 28830
1890 28829
processes 28828
considering 28827
considerable 28826
tons 28825
##work 28824
##ft 28823
##nia 28822
cooper 28821
trading 28820
dear 28819
conduct 28818
91 28817
illegal 28816
apple 28815
revolutionary 28814
holiday 28813
definition 28812
harder 28811
##van 28810
jacob 28809
circumstances 28808
destruction 28807
##lle 28806
popularity 28805
grip 28804
classified 28803
liverpool 28802
donald 28801
baltimore 28800
flows 28799
seeking 28798
honour 28797
approval 28796
92 28795
mechanical 28794
till 28793
happening 28792
statue 28791
critic 28790
increasingly 28789
immediate 28788
describe 28787
commerce 28786
stare 28785
##ster 28784
indonesia 28783
meat 28782
rounds 28781
boats 28780
baker 28779
orthodox 28778
depression 28777
formally 28776
worn 28775
naked 28774
claire 28773
muttered 28772
sentence 28771
11th 28770
emily 28769
document 28768
77 28767
criticism 28766
wished 28765
vessel 28764
spiritual 28763
bent 28762
virgin 28761
parker 28760
minimum 28759
murray 28758
lunch 28757
danny 28756
printed 28755
compilation 28754
keyboards 28753
false 28752
blow 28751
belonged 28750
68 28749
raising 28748
78 28747
cutting 28746
##board 28745
pittsburgh 28744
##up 28743
9th 28742
shadows 28741
81 28740
hated 28739
indigenous 28738
jon 28737
15th 28736
barry 28735
scholar 28734
ah 28733
##zer 28732
oliver 28731
##gy 28730
stick 28729
susan 28728
meetings 28727
attracted 28726
spell 28725
romantic 28724
##ver 28723
ye 28722
1895 28721
photo 28720
demanded 28719
customers 28718
##ac 28717
1896 28716
logan 28715
revival 28714
keys 28713
modified 28712
commanded 28711
jeans 28710
##ious 28709
upset 28708
raw 28707
phil 28706
detective 28705
hiding 28704
resident 28703
vincent 28702
##bly 28701
experiences 28700
diamond 28699
defeating 28698
coverage 28697
lucas 28696
external 28695
parks 28694
franchise 28693
helen 28692
bible 28691
successor 28690
percussion 28689
celebrated 28688
il 28687
lift 28686
profile 28685
clan 28684
romania 28683
##ied 28682
mills 28681
##su 28680
nobody 28679
achievement 28678
shrugged 28677
fault 28676
1897 28675
rhythm 28674
initiative 28673
breakfast 28672
carbon 28671
700 28670
69 28669
lasted 28668
violent 28667
74 28666
wound 28665
ken 28664
killer 28663
gradually 28662
filmed 28661
°c 28660
dollars 28659
processing 28658
94 28657
remove 28656
criticized 28655
guests 28654
sang 28653
chemistry 28652
##vin 28651
legislature 28650
disney 28649
##bridge 28648
uniform 28647
escaped 28646
integrated 28645
proposal 28644
purple 28643
denied 28642
liquid 28641
karl 28640
influential 28639
morris 28638
nights 28637
stones 28636
intense 28635
experimental 28634
twisted 28633
71 28632
84 28631
##ld 28630
pace 28629
nazi 28628
mitchell 28627
ny 28626
blind 28625
reporter 28624
newspapers 28623
14th 28622
centers 28621
burn 28620
basin 28619
forgotten 28618
surviving 28617
filed 28616
collections 28615
monastery 28614
losses 28613
manual 28612
couch 28611
description 28610
appropriate 28609
merely 28608
tag 28607
missions 28606
sebastian 28605
restoration 28604
replacing 28603
triple 28602
73 28601
elder 28600
julia 28599
warriors 28598
benjamin 28597
julian 28596
convinced 28595
stronger 28594
amazing 28593
declined 28592
versus 28591
merchant 28590
happens 28589
output 28588
finland 28587
bare 28586
barbara 28585
absence 28584
ignored 28583
dawn 28582
injuries 28581
##port 28580
producers 28579
##ram 28578
82 28577
luis 28576
##ities 28575
kw 28574
admit 28573
expensive 28572
electricity 28571
nba 28570
exception 28569
symbol 28568
##ving 28567
ladies 28566
shower 28565
sheriff 28564
characteristics 28563
##je 28562
aimed 28561
button 28560
ratio 28559
effectively 28558
summit 28557
angle 28556
jury 28555
bears 28554
foster 28553
vessels 28552
pants 28551
executed 28550
evans 28549
dozen 28548
advertising 28547
kicked 28546
patrol 28545
1889 28544
competitions 28543
lifetime 28542
principles 28541
athletics 28540
##logy 28539
birmingham 28538
sponsored 28537
89 28536
rob 28535
nomination 28534
1893 28533
acoustic 28532
##sm 28531
creature 28530
longest 28529
##tra 28528
credits 28527
harbor 28526
dust 28525
josh 28524
##so 28523
territories 28522
milk 28521
infrastructure 28520
completion 28519
thailand 28518
indians 28517
leon 28516
archbishop 28515
##sy 28514
assist 28513
pitch 28512
blake 28511
arrangement 28510
girlfriend 28509
serbian 28508
operational 28507
hence 28506
sad 28505
scent 28504
fur 28503
dj 28502
sessions 28501
hp 28500
refer 28499
rarely 28498
##ora 28497
exists 28496
1892 28495
##ten 28494
scientists 28493
dirty 28492
penalty 28491
burst 28490
portrait 28489
seed 28488
79 28487
pole 28486
limits 28485
rival 28484
1894 28483
stable 28482
alpha 28481
grave 28480
constitutional 28479
alcohol 28478
arrest 28477
flower 28476
mystery 28475
devil 28474
architectural 28473
relationships 28472
greatly 28471
habitat 28470
##istic 28469
larry 28468
progressive 28467
remote 28466
cotton 28465
##ics 28464
##ok 28463
preserved 28462
reaches 28461
##ming 28460
cited 28459
86 28458
vast 28457
scholarship 28456
decisions 28455
cbs 28454
joy 28453
teach 28452
1885 28451
editions 28450
knocked 28449
eve 28448
searching 28447
partly 28446
participation 28445
gap 28444
animated 28443
fate 28442
excellent 28441
##ett 28440
na 28439
87 28438
alternate 28437
saints 28436
youngest 28435
##ily 28434
climbed 28433
##ita 28432
##tors 28431
suggest 28430
##ct 28429
discussion 28428
staying 28427
choir 28426
lakes 28425
jacket 28424
revenue 28423
nevertheless 28422
peaked 28421
instrument 28420
wondering 28419
annually 28418
managing 28417
neil 28416
1891 28415
signing 28414
terry 28413
##ice 28412
apply 28411
clinical 28410
brooklyn 28409
aim 28408
catherine 28407
fuck 28406
farmers 28405
figured 28404
ninth 28403
pride 28402
hugh 28401
evolution 28400
ordinary 28399
involvement 28398
comfortable 28397
shouted 28396
tech 28395
encouraged 28394
taiwan 28393
representation 28392
sharing 28391
##lia 28390
##em 28389
panic 28388
exact 28387
cargo 28386
competing 28385
fat 28384
cried 28383
83 28382
1920s 28381
occasions 28380
pa 28379
cabin 28378
borders 28377
utah 28376
marcus 28375
##isation 28374
badly 28373
muscles 28372
##ance 28371
victorian 28370
transition 28369
warner 28368
bet 28367
permission 28366
##rin 28365
slave 28364
terrible 28363
similarly 28362
shares 28361
seth 28360
uefa 28359
possession 28358
medals 28357
benefits 28356
colleges 28355
lowered 28354
perfectly 28353
mall 28352
transit 28351
##ye 28350
##kar 28349
publisher 28348
##ened 28347
harrison 28346
deaths 28345
elevation 28344
##ae 28343
asleep 28342
machines 28341
sigh 28340
ash 28339
hardly 28338
argument 28337
occasion 28336
parent 28335
leo 28334
decline 28333
1888 28332
contribution 28331
##ua 28330
concentration 28329
1000 28328
opportunities 28327
hispanic 28326
guardian 28325
extent 28324
emotions 28323
hips 28322
mason 28321
volumes 28320
bloody 28319
controversy 28318
diameter 28317
steady 28316
mistake 28315
phoenix 28314
identify 28313
violin 28312
##sk 28311
departure 28310
richmond 28309
spin 28308
funeral 28307
enemies 28306
1864 28305
gear 28304
literally 28303
connor 28302
random 28301
sergeant 28300
grab 28299
confusion 28298
1865 28297
transmission 28296
informed 28295
op 28294
leaning 28293
sacred 28292
suspended 28291
thinks 28290
gates 28289
portland 28288
luck 28287
agencies 28286
yours 28285
hull 28284
expert 28283
muscle 28282
layer 28281
practical 28280
sculpture 28279
jerusalem 28278
latest 28277
lloyd 28276
statistics 28275
deeper 28274
recommended 28273
warrior 28272
arkansas 28271
mess 28270
supports 28269
greg 28268
eagle 28267
1880 28266
recovered 28265
rated 28264
concerts 28263
rushed 28262
##ano 28261
stops 28260
eggs 28259
files 28258
premiere 28257
keith 28256
##vo 28255
delhi 28254
turner 28253
pit 28252
affair 28251
belief 28250
paint 28249
##zing 28248
mate 28247
##ach 28246
##ev 28245
victim 28244
##ology 28243
withdrew 28242
bonus 28241
styles 28240
fled 28239
##ud 28238
glasgow 28237
technologies 28236
funded 28235
nbc 28234
adaptation 28233
##ata 28232
portrayed 28231
cooperation 28230
supporters 28229
judges 28228
bernard 28227
justin 28226
hallway 28225
ralph 28224
##ick 28223
graduating 28222
controversial 28221
distant 28220
continental 28219
spider 28218
bite 28217
##ho 28216
recognize 28215
intention 28214
mixing 28213
##ese 28212
egyptian 28211
bow 28210
tourism 28209
suppose 28208
claiming 28207
tiger 28206
dominated 28205
participants 28204
vi 28203
##ru 28202
nurse 28201
partially 28200
tape 28199
##rum 28198
psychology 28197
##rn 28196
essential 28195
touring 28194
duo 28193
voting 28192
civilian 28191
emotional 28190
channels 28189
##king 28188
apparent 28187
hebrew 28186
1887 28185
tommy 28184
carrier 28183
intersection 28182
beast 28181
hudson 28180
##gar 28179
##zo 28178
lab 28177
nova 28176
bench 28175
discuss 28174
costa 28173
##ered 28172
detailed 28171
behalf 28170
drivers 28169
unfortunately 28168
obtain 28167
##lis 28166
rocky 28165
##dae 28164
siege 28163
friendship 28162
honey 28161
##rian 28160
1861 28159
amy 28158
hang 28157
posted 28156
governments 28155
collins 28154
respond 28153
wildlife 28152
preferred 28151
operator 28150
##po 28149
laura 28148
pregnant 28147
videos 28146
dennis 28145
suspected 28144
boots 28143
instantly 28142
weird 28141
automatic 28140
businessman 28139
alleged 28138
placing 28137
throwing 28136
ph 28135
mood 28134
1862 28133
perry 28132
venue 28131
jet 28130
remainder 28129
##lli 28128
##ci 28127
passion 28126
biological 28125
boyfriend 28124
1863 28123
dirt 28122
buffalo 28121
ron 28120
segment 28119
fa 28118
abuse 28117
##era 28116
genre 28115
thrown 28114
stroke 28113
colored 28112
stress 28111
exercise 28110
displayed 28109
##gen 28108
struggled 28107
##tti 28106
abroad 28105
dramatic 28104
wonderful 28103
thereafter 28102
madrid 28101
component 28100
widespread 28099
##sed 28098
tale 28097
citizen 28096
todd 28095
monday 28094
1886 28093
vancouver 28092
overseas 28091
forcing 28090
crying 28089
descent 28088
##ris 28087
discussed 28086
substantial 28085
ranks 28084
regime 28083
1870 28082
provinces 28081
switch 28080
drum 28079
zane 28078
ted 28077
tribes 28076
proof 28075
lp 28074
cream 28073
researchers 28072
volunteer 28071
manor 28070
silk 28069
milan 28068
donated 28067
allies 28066
venture 28065
principle 28064
delivery 28063
enterprise 28062
##ves 28061
##ans 28060
bars 28059
traditionally 28058
witch 28057
reminded 28056
copper 28055
##uk 28054
pete 28053
inter 28052
links 28051
colin 28050
grinned 28049
elsewhere 28048
competitive 28047
frequent 28046
##oy 28045
scream 28044
##hu 28043
tension 28042
texts 28041
submarine 28040
finnish 28039
defending 28038
defend 28037
pat 28036
detail 28035
1884 28034
affiliated 28033
stuart 28032
themes 28031
villa 28030
periods 28029
tool 28028
belgian 28027
ruling 28026
crimes 28025
answers 28024
folded 28023
licensed 28022
resort 28021
demolished 28020
hans 28019
lucy 28018
1881 28017
lion 28016
traded 28015
photographs 28014
writes 28013
craig 28012
##fa 28011
trials 28010
generated 28009
beth 28008
noble 28007
debt 28006
percentage 28005
yorkshire 28004
erected 28003
ss 28002
viewed 28001
grades 28000
confidence 27999
ceased 27998
islam 27997
telephone 27996
retail 27995
##ible 27994
chile 27993
m² 27992
roberts 27991
sixteen 27990
##ich 27989
commented 27988
hampshire 27987
innocent 27986
dual 27985
pounds 27984
checked 27983
regulations 27982
afghanistan 27981
sung 27980
rico 27979
liberty 27978
assets 27977
bigger 27976
options 27975
angels 27974
relegated 27973
tribute 27972
wells 27971
attending 27970
leaf 27969
##yan 27968
butler 27967
romanian 27966
forum 27965
monthly 27964
lisa 27963
patterns 27962
gmina 27961
##tory 27960
madison 27959
hurricane 27958
rev 27957
##ians 27956
bristol 27955
##ula 27954
elite 27953
valuable 27952
disaster 27951
democracy 27950
awareness 27949
germans 27948
freyja 27947
##ins 27946
loop 27945
absolutely 27944
paying 27943
populations 27942
maine 27941
sole 27940
prayer 27939
spencer 27938
releases 27937
doorway 27936
bull 27935
##ani 27934
lover 27933
midnight 27932
conclusion 27931
##sson 27930
thirteen 27929
lily 27928
mediterranean 27927
##lt 27926
nhl 27925
proud 27924
sample 27923
##hill 27922
drummer 27921
guinea 27920
##ova 27919
murphy 27918
climb 27917
##ston 27916
instant 27915
attributed 27914
horn 27913
ain 27912
railways 27911
steven 27910
##ao 27909
autumn 27908
ferry 27907
opponent 27906
root 27905
traveling 27904
secured 27903
corridor 27902
stretched 27901
tales 27900
sheet 27899
trinity 27898
cattle 27897
helps 27896
indicates 27895
manhattan 27894
murdered 27893
fitted 27892
1882 27891
gentle 27890
grandmother 27889
mines 27888
shocked 27887
vegas 27886
produces 27885
##light 27884
caribbean 27883
##ou 27882
belong 27881
continuous 27880
desperate 27879
drunk 27878
historically 27877
trio 27876
waved 27875
raf 27874
dealing 27873
nathan 27872
bat 27871
murmured 27870
interrupted 27869
residing 27868
scientist 27867
pioneer 27866
harold 27865
aaron 27864
##net 27863
delta 27862
attempting 27861
minority 27860
mini 27859
believes 27858
chorus 27857
tend 27856
lots 27855
eyed 27854
indoor 27853
load 27852
shots 27851
updated 27850
jail 27849
##llo 27848
concerning 27847
connecting 27846
wealth 27845
##ved 27844
slaves 27843
arrive 27842
rangers 27841
sufficient 27840
rebuilt 27839
##wick 27838
cardinal 27837
flood 27836
muhammad 27835
whenever 27834
relation 27833
runners 27832
moral 27831
repair 27830
viewers 27829
arriving 27828
revenge 27827
punk 27826
assisted 27825
bath 27824
fairly 27823
breathe 27822
lists 27821
innings 27820
illustrated 27819
whisper 27818
nearest 27817
voters 27816
clinton 27815
ties 27814
ultimate 27813
screamed 27812
beijing 27811
lions 27810
andre 27809
fictional 27808
gathering 27807
comfort 27806
radar 27805
suitable 27804
dismissed 27803
hms 27802
ban 27801
pine 27800
wrist 27799
atmosphere 27798
voivodeship 27797
bid 27796
timber 27795
##ned 27794
##nan 27793
giants 27792
##ane 27791
cameron 27790
recovery 27789
uss 27788
identical 27787
categories 27786
switched 27785
serbia 27784
laughter 27783
noah 27782
ensemble 27781
therapy 27780
peoples 27779
touching 27778
##off 27777
locally 27776
pearl 27775
platforms 27774
everywhere 27773
ballet 27772
tables 27771
lanka 27770
herbert 27769
outdoor 27768
toured 27767
derek 27766
1883 27765
spaces 27764
contested 27763
swept 27762
1878 27761
exclusive 27760
slight 27759
connections 27758
##dra 27757
winds 27756
prisoner 27755
collective 27754
bangladesh 27753
tube 27752
publicly 27751
wealthy 27750
thai 27749
##ys 27748
isolated 27747
select 27746
##ric 27745
insisted 27744
pen 27743
fortune 27742
ticket 27741
spotted 27740
reportedly 27739
animation 27738
enforcement 27737
tanks 27736
110 27735
decides 27734
wider 27733
lowest 27732
owen 27731
##time 27730
nod 27729
hitting 27728
##hn 27727
gregory 27726
furthermore 27725
magazines 27724
fighters 27723
solutions 27722
##ery 27721
pointing 27720
requested 27719
peru 27718
reed 27717
chancellor 27716
knights 27715
mask 27714
worker 27713
eldest 27712
flames 27711
reduction 27710
1860 27709
volunteers 27708
##tis 27707
reporting 27706
##hl 27705
wire 27704
advisory 27703
endemic 27702
origins 27701
settlers 27700
pursue 27699
knock 27698
consumer 27697
1876 27696
eu 27695
compound 27694
creatures 27693
mansion 27692
sentenced 27691
ivan 27690
deployed 27689
guitars 27688
frowned 27687
involves 27686
mechanism 27685
kilometers 27684
perspective 27683
shops 27682
maps 27681
terminus 27680
duncan 27679
alien 27678
fist 27677
bridges 27676
##pers 27675
heroes 27674
fed 27673
derby 27672
swallowed 27671
##ros 27670
patent 27669
sara 27668
illness 27667
characterized 27666
adventures 27665
slide 27664
hawaii 27663
jurisdiction 27662
##op 27661
organised 27660
##side 27659
adelaide 27658
walks 27657
biology 27656
se 27655
##ties 27654
rogers 27653
swing 27652
tightly 27651
boundaries 27650
##rie 27649
prepare 27648
implementation 27647
stolen 27646
##sha 27645
certified 27644
colombia 27643
edwards 27642
garage 27641
##mm 27640
recalled 27639
##ball 27638
rage 27637
harm 27636
nigeria 27635
breast 27634
##ren 27633
furniture 27632
pupils 27631
settle 27630
##lus 27629
cuba 27628
balls 27627
client 27626
alaska 27625
21st 27624
linear 27623
thrust 27622
celebration 27621
latino 27620
genetic 27619
terror 27618
##cia 27617
##ening 27616
lightning 27615
fee 27614
witness 27613
lodge 27612
establishing 27611
skull 27610
##ique 27609
earning 27608
hood 27607
##ei 27606
rebellion 27605
wang 27604
sporting 27603
warned 27602
missile 27601
devoted 27600
activist 27599
porch 27598
worship 27597
fourteen 27596
package 27595
1871 27594
decorated 27593
##shire 27592
housed 27591
##ock 27590
chess 27589
sailed 27588
doctors 27587
oscar 27586
joan 27585
treat 27584
garcia 27583
harbour 27582
jeremy 27581
##ire 27580
traditions 27579
dominant 27578
jacques 27577
##gon 27576
##wan 27575
relocated 27574
1879 27573
amendment 27572
sized 27571
companion 27570
simultaneously 27569
volleyball 27568
spun 27567
acre 27566
increases 27565
stopping 27564
loves 27563
belongs 27562
affect 27561
drafted 27560
tossed 27559
scout 27558
battles 27557
1875 27556
filming 27555
shoved 27554
munich 27553
tenure 27552
vertical 27551
romance 27550
pc 27549
##cher 27548
argue 27547
##ical 27546
craft 27545
ranging 27544
www 27543
opens 27542
honest 27541
tyler 27540
yesterday 27539
virtual 27538
##let 27537
muslims 27536
reveal 27535
snake 27534
immigrants 27533
radical 27532
screaming 27531
speakers 27530
firing 27529
saving 27528
belonging 27527
ease 27526
lighting 27525
prefecture 27524
blame 27523
farmer 27522
hungry 27521
grows 27520
rubbed 27519
beam 27518
sur 27517
subsidiary 27516
##cha 27515
armenian 27514
sao 27513
dropping 27512
conventional 27511
##fer 27510
microsoft 27509
reply 27508
qualify 27507
spots 27506
1867 27505
sweat 27504
festivals 27503
##ken 27502
immigration 27501
physician 27500
discover 27499
exposure 27498
sandy 27497
explanation 27496
isaac 27495
implemented 27494
##fish 27493
hart 27492
initiated 27491
connect 27490
stakes 27489
presents 27488
heights 27487
householder 27486
pleased 27485
tourist 27484
regardless 27483
slip 27482
closest 27481
##ction 27480
surely 27479
sultan 27478
brings 27477
riley 27476
preparation 27475
aboard 27474
slammed 27473
baptist 27472
experiment 27471
ongoing 27470
interstate 27469
organic 27468
playoffs 27467
##ika 27466
1877 27465
130 27464
##tar 27463
hindu 27462
error 27461
tours 27460
tier 27459
plenty 27458
arrangements 27457
talks 27456
trapped 27455
excited 27454
sank 27453
ho 27452
athens 27451
1872 27450
denver 27449
welfare 27448
suburb 27447
athletes 27446
trick 27445
diverse 27444
belly 27443
exclusively 27442
yelled 27441
1868 27440
##med 27439
conversion 27438
##ette 27437
1874 27436
internationally 27435
computers 27434
conductor 27433
abilities 27432
sensitive 27431
hello 27430
dispute 27429
measured 27428
globe 27427
rocket 27426
prices 27425
amsterdam 27424
flights 27423
tigers 27422
inn 27421
municipalities 27420
emotion 27419
references 27418
3d 27417
##mus 27416
explains 27415
airlines 27414
manufactured 27413
pm 27412
archaeological 27411
1873 27410
interpretation 27409
devon 27408
comment 27407
##ites 27406
settlements 27405
kissing 27404
absolute 27403
improvement 27402
suite 27401
impressed 27400
barcelona 27399
sullivan 27398
jefferson 27397
towers 27396
jesse 27395
julie 27394
##tin 27393
##lu 27392
grandson 27391
hi 27390
gauge 27389
regard 27388
rings 27387
interviews 27386
trace 27385
raymond 27384
thumb 27383
departments 27382
burns 27381
serial 27380
bulgarian 27379
scores 27378
demonstrated 27377
##ix 27376
1866 27375
kyle 27374
alberta 27373
underneath 27372
romanized 27371
##ward 27370
relieved 27369
acquisition 27368
phrase 27367
cliff 27366
reveals 27365
han 27364
cuts 27363
merger 27362
custom 27361
##dar 27360
nee 27359
gilbert 27358
graduation 27357
##nts 27356
assessment 27355
cafe 27354
difficulty 27353
demands 27352
swung 27351
democrat 27350
jennifer 27349
commons 27348
1940s 27347
grove 27346
##yo 27345
completing 27344
focuses 27343
sum 27342
substitute 27341
bearing 27340
stretch 27339
reception 27338
##py 27337
reflected 27336
essentially 27335
destination 27334
pairs 27333
##ched 27332
survival 27331
resource 27330
##bach 27329
promoting 27328
doubles 27327
messages 27326
tear 27325
##down 27324
##fully 27323
parade 27322
florence 27321
harvey 27320
incumbent 27319
partial 27318
framework 27317
900 27316
pedro 27315
frozen 27314
procedure 27313
olivia 27312
controls 27311
##mic 27310
shelter 27309
personally 27308
temperatures 27307
##od 27306
brisbane 27305
tested 27304
sits 27303
marble 27302
comprehensive 27301
oxygen 27300
leonard 27299
##kov 27298
inaugural 27297
iranian 27296
referring 27295
quarters 27294
attitude 27293
##ivity 27292
mainstream 27291
lined 27290
mars 27289
dakota 27288
norfolk 27287
unsuccessful 27286
##° 27285
explosion 27284
helicopter 27283
congressional 27282
##sing 27281
inspector 27280
bitch 27279
seal 27278
departed 27277
divine 27276
##ters 27275
coaching 27274
examination 27273
punishment 27272
manufacturer 27271
sink 27270
columns 27269
unincorporated 27268
signals 27267
nevada 27266
squeezed 27265
dylan 27264
dining 27263
photos 27262
martial 27261
manuel 27260
eighteen 27259
elevator 27258
brushed 27257
plates 27256
ministers 27255
ivy 27254
congregation 27253
##len 27252
slept 27251
specialized 27250
taxes 27249
curve 27248
restricted 27247
negotiations 27246
likes 27245
statistical 27244
arnold 27243
inspiration 27242
execution 27241
bold 27240
intermediate 27239
significance 27238
margin 27237
ruler 27236
wheels 27235
gothic 27234
intellectual 27233
dependent 27232
listened 27231
eligible 27230
buses 27229
widow 27228
syria 27227
earn 27226
cincinnati 27225
collapsed 27224
recipient 27223
secrets 27222
accessible 27221
philippine 27220
maritime 27219
goddess 27218
clerk 27217
surrender 27216
breaks 27215
playoff 27214
database 27213
##ified 27212
##lon 27211
ideal 27210
beetle 27209
aspect 27208
soap 27207
regulation 27206
strings 27205
expand 27204
anglo 27203
shorter 27202
crosses 27201
retreat 27200
tough 27199
coins 27198
wallace 27197
directions 27196
pressing 27195
##oon 27194
shipping 27193
locomotives 27192
comparison 27191
topics 27190
nephew 27189
##mes 27188
distinction 27187
honors 27186
travelled 27185
sierra 27184
ibn 27183
##over 27182
fortress 27181
sa 27180
recognised 27179
carved 27178
1869 27177
clients 27176
##dan 27175
intent 27174
##mar 27173
coaches 27172
describing 27171
bread 27170
##ington 27169
beaten 27168
northwestern 27167
##ona 27166
merit 27165
youtube 27164
collapse 27163
challenges 27162
em 27161
historians 27160
objective 27159
submitted 27158
virus 27157
attacking 27156
drake 27155
assume 27154
##ere 27153
diseases 27152
marc 27151
stem 27150
leeds 27149
##cus 27148
##ab 27147
farming 27146
glasses 27145
##lock 27144
visits 27143
nowhere 27142
fellowship 27141
relevant 27140
carries 27139
restaurants 27138
experiments 27137
101 27136
constantly 27135
bases 27134
targets 27133
shah 27132
tenth 27131
opponents 27130
verse 27129
territorial 27128
##ira 27127
writings 27126
corruption 27125
##hs 27124
instruction 27123
inherited 27122
reverse 27121
emphasis 27120
##vic 27119
employee 27118
arch 27117
keeps 27116
rabbi 27115
watson 27114
payment 27113
uh 27112
##ala 27111
nancy 27110
##tre 27109
venice 27108
fastest 27107
sexy 27106
banned 27105
adrian 27104
properly 27103
ruth 27102
touchdown 27101
dollar 27100
boards 27099
metre 27098
circles 27097
edges 27096
favour 27095
comments 27094
ok 27093
travels 27092
liberation 27091
scattered 27090
firmly 27089
##ular 27088
holland 27087
permitted 27086
diesel 27085
kenya 27084
den 27083
originated 27082
##ral 27081
demons 27080
resumed 27079
dragged 27078
rider 27077
##rus 27076
servant 27075
blinked 27074
extend 27073
torn 27072
##ias 27071
##sey 27070
input 27069
meal 27068
everybody 27067
cylinder 27066
kinds 27065
camps 27064
##fe 27063
bullet 27062
logic 27061
##wn 27060
croatian 27059
evolved 27058
healthy 27057
fool 27056
chocolate 27055
wise 27054
preserve 27053
pradesh 27052
##ess 27051
respective 27050
1850 27049
##ew 27048
chicken 27047
artificial 27046
gross 27045
corresponding 27044
convicted 27043
cage 27042
caroline 27041
dialogue 27040
##dor 27039
narrative 27038
stranger 27037
mario 27036
br 27035
christianity 27034
failing 27033
trent 27032
commanding 27031
buddhist 27030
1848 27029
maurice 27028
focusing 27027
yale 27026
bike 27025
altitude 27024
##ering 27023
mouse 27022
revised 27021
##sley 27020
veteran 27019
##ig 27018
pulls 27017
theology 27016
crashed 27015
campaigns 27014
legion 27013
##ability 27012
drag 27011
excellence 27010
customer 27009
cancelled 27008
intensity 27007
excuse 27006
##lar 27005
liga 27004
participating 27003
contributing 27002
printing 27001
##burn 27000
variable 26999
##rk 26998
curious 26997
bin 26996
legacy 26995
renaissance 26994
##my 26993
symptoms 26992
binding 26991
vocalist 26990
dancer 26989
##nie 26988
grammar 26987
gospel 26986
democrats 26985
ya 26984
enters 26983
sc 26982
diplomatic 26981
hitler 26980
##ser 26979
clouds 26978
mathematical 26977
quit 26976
defended 26975
oriented 26974
##heim 26973
fundamental 26972
hardware 26971
impressive 26970
equally 26969
convince 26968
confederate 26967
guilt 26966
chuck 26965
sliding 26964
##ware 26963
magnetic 26962
narrowed 26961
petersburg 26960
bulgaria 26959
otto 26958
phd 26957
skill 26956
##ama 26955
reader 26954
hopes 26953
pitcher 26952
reservoir 26951
hearts 26950
automatically 26949
expecting 26948
mysterious 26947
bennett 26946
extensively 26945
imagined 26944
seeds 26943
monitor 26942
fix 26941
##ative 26940
journalism 26939
struggling 26938
signature 26937
ranch 26936
encounter 26935
photographer 26934
observation 26933
protests 26932
##pin 26931
influences 26930
##hr 26929
calendar 26928
##all 26927
cruz 26926
croatia 26925
locomotive 26924
hughes 26923
naturally 26922
shakespeare 26921
basement 26920
hook 26919
uncredited 26918
faded 26917
theories 26916
approaches 26915
dare 26914
phillips 26913
filling 26912
fury 26911
obama 26910
##ain 26909
efficient 26908
arc 26907
deliver 26906
min 26905
raid 26904
breeding 26903
inducted 26902
leagues 26901
efficiency 26900
axis 26899
montana 26898
eagles 26897
##ked 26896
supplied 26895
instructions 26894
karen 26893
picking 26892
indicating 26891
trap 26890
anchor 26889
practically 26888
christians 26887
tomb 26886
vary 26885
occasional 26884
electronics 26883
lords 26882
readers 26881
newcastle 26880
faint 26879
innovation 26878
collect 26877
situations 26876
engagement 26875
160 26874
claude 26873
mixture 26872
##feld 26871
peer 26870
tissue 26869
logo 26868
lean 26867
##ration 26866
°f 26865
floors 26864
##ven 26863
architects 26862
reducing 26861
##our 26860
##ments 26859
rope 26858
1859 26857
ottawa 26856
##har 26855
samples 26854
banking 26853
declaration 26852
proteins 26851
resignation 26850
francois 26849
saudi 26848
advocate 26847
exhibited 26846
armor 26845
twins 26844
divorce 26843
##ras 26842
abraham 26841
reviewed 26840
jo 26839
temporarily 26838
matrix 26837
physically 26836
pulse 26835
curled 26834
##ena 26833
difficulties 26832
bengal 26831
usage 26830
##ban 26829
annie 26828
riders 26827
certificate 26826
##pi 26825
holes 26824
warsaw 26823
distinctive 26822
jessica 26821
##mon 26820
mutual 26819
1857 26818
customs 26817
circular 26816
eugene 26815
removal 26814
loaded 26813
mere 26812
vulnerable 26811
depicted 26810
generations 26809
dame 26808
heir 26807
enormous 26806
lightly 26805
climbing 26804
pitched 26803
lessons 26802
pilots 26801
nepal 26800
ram 26799
google 26798
preparing 26797
brad 26796
louise 26795
renowned 26794
##₂ 26793
liam 26792
##ably 26791
plaza 26790
shaw 26789
sophie 26788
brilliant 26787
bills 26786
##bar 26785
##nik 26784
fucking 26783
mainland 26782
server 26781
pleasant 26780
seized 26779
veterans 26778
jerked 26777
fail 26776
beta 26775
brush 26774
radiation 26773
stored 26772
warmth 26771
southeastern 26770
nate 26769
sin 26768
raced 26767
berkeley 26766
joke 26765
athlete 26764
designation 26763
trunk 26762
##low 26761
roland 26760
qualification 26759
archives 26758
heels 26757
artwork 26756
receives 26755
judicial 26754
reserves 26753
##bed 26752
woke 26751
installation 26750
abu 26749
floating 26748
fake 26747
lesser 26746
excitement 26745
interface 26744
concentrated 26743
addressed 26742
characteristic 26741
amanda 26740
saxophone 26739
monk 26738
auto 26737
##bus 26736
releasing 26735
egg 26734
dies 26733
interaction 26732
defender 26731
ce 26730
outbreak 26729
glory 26728
loving 26727
##bert 26726
sequel 26725
consciousness 26724
http 26723
awake 26722
ski 26721
enrolled 26720
##ress 26719
handling 26718
rookie 26717
brow 26716
somebody 26715
biography 26714
warfare 26713
amounts 26712
contracts 26711
presentation 26710
fabric 26709
dissolved 26708
challenged 26707
meter 26706
psychological 26705
lt 26704
elevated 26703
rally 26702
accurate 26701
##tha 26700
hospitals 26699
undergraduate 26698
specialist 26697
venezuela 26696
exhibit 26695
shed 26694
nursing 26693
protestant 26692
fluid 26691
structural 26690
footage 26689
jared 26688
consistent 26687
prey 26686
##ska 26685
succession 26684
reflect 26683
exile 26682
lebanon 26681
wiped 26680
suspect 26679
shanghai 26678
resting 26677
integration 26676
preservation 26675
marvel 26674
variant 26673
pirates 26672
sheep 26671
rounded 26670
capita 26669
sailing 26668
colonies 26667
manuscript 26666
deemed 26665
variations 26664
clarke 26663
functional 26662
emerging 26661
boxing 26660
relaxed 26659
curse 26658
azerbaijan 26657
heavyweight 26656
nickname 26655
editorial 26654
rang 26653
grid 26652
tightened 26651
earthquake 26650
flashed 26649
miguel 26648
rushing 26647
##ches 26646
improvements 26645
boxes 26644
brooks 26643
180 26642
consumption 26641
molecular 26640
felix 26639
societies 26638
repeatedly 26637
variation 26636
aids 26635
civic 26634
graphics 26633
professionals 26632
realm 26631
autonomous 26630
receiver 26629
delayed 26628
workshop 26627
militia 26626
chairs 26625
trump 26624
canyon 26623
##point 26622
harsh 26621
extending 26620
lovely 26619
happiness 26618
##jan 26617
stake 26616
eyebrows 26615
embassy 26614
wellington 26613
hannah 26612
##ella 26611
sony 26610
corners 26609
bishops 26608
swear 26607
cloth 26606
contents 26605
xi 26604
namely 26603
commenced 26602
1854 26601
stanford 26600
nashville 26599
courage 26598
graphic 26597
commitment 26596
garrison 26595
##bin 26594
hamlet 26593
clearing 26592
rebels 26591
attraction 26590
literacy 26589
cooking 26588
ruins 26587
temples 26586
jenny 26585
humanity 26584
celebrate 26583
hasn 26582
freight 26581
sixty 26580
rebel 26579
bastard 26578
##art 26577
newton 26576
##ada 26575
deer 26574
##ges 26573
##ching 26572
smiles 26571
delaware 26570
singers 26569
##ets 26568
approaching 26567
assists 26566
flame 26565
##ph 26564
boulevard 26563
barrel 26562
planted 26561
##ome 26560
pursuit 26559
##sia 26558
consequences 26557
posts 26556
shallow 26555
invitation 26554
rode 26553
depot 26552
ernest 26551
kane 26550
rod 26549
concepts 26548
preston 26547
topic 26546
chambers 26545
striking 26544
blast 26543
arrives 26542
descendants 26541
montgomery 26540
ranges 26539
worlds 26538
##lay 26537
##ari 26536
span 26535
chaos 26534
praise 26533
##ag 26532
fewer 26531
1855 26530
sanctuary 26529
mud 26528
fbi 26527
##ions 26526
programmes 26525
maintaining 26524
unity 26523
harper 26522
bore 26521
handsome 26520
closure 26519
tournaments 26518
thunder 26517
nebraska 26516
linda 26515
facade 26514
puts 26513
satisfied 26512
argentine 26511
dale 26510
cork 26509
dome 26508
panama 26507
##yl 26506
1858 26505
tasks 26504
experts 26503
##ates 26502
feeding 26501
equation 26500
##las 26499
##ida 26498
##tu 26497
engage 26496
bryan 26495
##ax 26494
um 26493
quartet 26492
melody 26491
disbanded 26490
sheffield 26489
blocked 26488
gasped 26487
delay 26486
kisses 26485
maggie 26484
connects 26483
##non 26482
sts 26481
poured 26480
creator 26479
publishers 26478
##we 26477
guided 26476
ellis 26475
extinct 26474
hug 26473
gaining 26472
##ord 26471
complicated 26470
##bility 26469
poll 26468
clenched 26467
investigate 26466
##use 26465
thereby 26464
quantum 26463
spine 26462
cdp 26461
humor 26460
kills 26459
administered 26458
semifinals 26457
##du 26456
encountered 26455
ignore 26454
##bu 26453
commentary 26452
##maker 26451
bother 26450
roosevelt 26449
140 26448
plains 26447
halfway 26446
flowing 26445
cultures 26444
crack 26443
imprisoned 26442
neighboring 26441
airline 26440
##ses 26439
##view 26438
##mate 26437
##ec 26436
gather 26435
wolves 26434
marathon 26433
transformed 26432
##ill 26431
cruise 26430
organisations 26429
carol 26428
punch 26427
exhibitions 26426
numbered 26425
alarm 26424
ratings 26423
daddy 26422
silently 26421
##stein 26420
queens 26419
colours 26418
impression 26417
guidance 26416
liu 26415
tactical 26414
##rat 26413
marshal 26412
della 26411
arrow 26410
##ings 26409
rested 26408
feared 26407
tender 26406
owns 26405
bitter 26404
advisor 26403
escort 26402
##ides 26401
spare 26400
farms 26399
grants 26398
##ene 26397
dragons 26396
encourage 26395
colleagues 26394
cameras 26393
##und 26392
sucked 26391
pile 26390
spirits 26389
prague 26388
statements 26387
suspension 26386
landmark 26385
fence 26384
torture 26383
recreation 26382
bags 26381
permanently 26380
survivors 26379
pond 26378
spy 26377
predecessor 26376
bombing 26375
coup 26374
##og 26373
protecting 26372
transformation 26371
glow 26370
##lands 26369
##book 26368
dug 26367
priests 26366
andrea 26365
feat 26364
barn 26363
jumping 26362
##chen 26361
##ologist 26360
##con 26359
casualties 26358
stern 26357
auckland 26356
pipe 26355
serie 26354
revealing 26353
ba 26352
##bel 26351
trevor 26350
mercy 26349
spectrum 26348
yang 26347
consist 26346
governing 26345
collaborated 26344
possessed 26343
epic 26342
comprises 26341
blew 26340
shane 26339
##ack 26338
lopez 26337
honored 26336
magical 26335
sacrifice 26334
judgment 26333
perceived 26332
hammer 26331
mtv 26330
baronet 26329
tune 26328
das 26327
missionary 26326
sheets 26325
350 26324
neutral 26323
oral 26322
threatening 26321
attractive 26320
shade 26319
aims 26318
seminary 26317
##master 26316
estates 26315
1856 26314
michel 26313
wounds 26312
refugees 26311
manufacturers 26310
##nic 26309
mercury 26308
syndrome 26307
porter 26306
##iya 26305
##din 26304
hamburg 26303
identification 26302
upstairs 26301
purse 26300
widened 26299
pause 26298
cared 26297
breathed 26296
affiliate 26295
santiago 26294
prevented 26293
celtic 26292
fisher 26291
125 26290
recruited 26289
byzantine 26288
reconstruction 26287
farther 26286
##mp 26285
diet 26284
sake 26283
au 26282
spite 26281
sensation 26280
##ert 26279
blank 26278
separation 26277
105 26276
##hon 26275
vladimir 26274
armies 26273
anime 26272
##lie 26271
accommodate 26270
orbit 26269
cult 26268
sofia 26267
archive 26266
##ify 26265
##box 26264
founders 26263
sustained 26262
disorder 26261
honours 26260
northeastern 26259
mia 26258
crops 26257
violet 26256
threats 26255
blanket 26254
fires 26253
canton 26252
followers 26251
southwestern 26250
prototype 26249
voyage 26248
assignment 26247
altered 26246
moderate 26245
protocol 26244
pistol 26243
##eo 26242
questioned 26241
brass 26240
lifting 26239
1852 26238
math 26237
authored 26236
##ual 26235
doug 26234
dimensional 26233
dynamic 26232
##san 26231
1851 26230
pronounced 26229
grateful 26228
quest 26227
uncomfortable 26226
boom 26225
presidency 26224
stevens 26223
relating 26222
politicians 26221
chen 26220
barrier 26219
quinn 26218
diana 26217
mosque 26216
tribal 26215
cheese 26214
palmer 26213
portions 26212
sometime 26211
chester 26210
treasure 26209
wu 26208
bend 26207
download 26206
millions 26205
reforms 26204
registration 26203
##osa 26202
consequently 26201
monitoring 26200
ate 26199
preliminary 26198
brandon 26197
invented 26196
ps 26195
eaten 26194
exterior 26193
intervention 26192
ports 26191
documented 26190
log 26189
displays 26188
lecture 26187
sally 26186
favourite 26185
##itz 26184
vermont 26183
lo 26182
invisible 26181
isle 26180
breed 26179
##ator 26178
journalists 26177
relay 26176
speaks 26175
backward 26174
explore 26173
midfielder 26172
actively 26171
stefan 26170
procedures 26169
cannon 26168
blond 26167
kenneth 26166
centered 26165
servants 26164
chains 26163
libraries 26162
malcolm 26161
essex 26160
henri 26159
slavery 26158
##hal 26157
facts 26156
fairy 26155
coached 26154
cassie 26153
cats 26152
washed 26151
cop 26150
##fi 26149
announcement 26148
item 26147
2000s 26146
vinyl 26145
activated 26144
marco 26143
frontier 26142
growled 26141
curriculum 26140
##das 26139
loyal 26138
accomplished 26137
leslie 26136
ritual 26135
kenny 26134
##00 26133
vii 26132
napoleon 26131
hollow 26130
hybrid 26129
jungle 26128
stationed 26127
friedrich 26126
counted 26125
##ulated 26124
platinum 26123
theatrical 26122
seated 26121
col 26120
rubber 26119
glen 26118
1840 26117
diversity 26116
healing 26115
extends 26114
id 26113
provisions 26112
administrator 26111
columbus 26110
##oe 26109
tributary 26108
te 26107
assured 26106
org 26105
##uous 26104
prestigious 26103
examined 26102
lectures 26101
grammy 26100
ronald 26099
associations 26098
bailey 26097
allan 26096
essays 26095
flute 26094
believing 26093
consultant 26092
proceedings 26091
travelling 26090
1853 26089
kit 26088
kerala 26087
yugoslavia 26086
buddy 26085
methodist 26084
##ith 26083
burial 26082
centres 26081
batman 26080
##nda 26079
discontinued 26078
bo 26077
dock 26076
stockholm 26075
lungs 26074
severely 26073
##nk 26072
citing 26071
manga 26070
##ugh 26069
steal 26068
mumbai 26067
iraqi 26066
robot 26065
celebrity 26064
bride 26063
broadcasts 26062
abolished 26061
pot 26060
joel 26059
overhead 26058
franz 26057
packed 26056
reconnaissance 26055
johann 26054
acknowledged 26053
introduce 26052
handled 26051
doctorate 26050
developments 26049
drinks 26048
alley 26047
palestine 26046
##nis 26045
##aki 26044
proceeded 26043
recover 26042
bradley 26041
grain 26040
patch 26039
afford 26038
infection 26037
nationalist 26036
legendary 26035
##ath 26034
interchange 26033
virtually 26032
gen 26031
gravity 26030
exploration 26029
amber 26028
vital 26027
wishes 26026
powell 26025
doctrine 26024
elbow 26023
screenplay 26022
##bird 26021
contribute 26020
indonesian 26019
pet 26018
creates 26017
##com 26016
enzyme 26015
kylie 26014
discipline 26013
drops 26012
manila 26011
hunger 26010
##ien 26009
layers 26008
suffer 26007
fever 26006
bits 26005
monica 26004
keyboard 26003
manages 26002
##hood 26001
searched 26000
appeals 25999
##bad 25998
testament 25997
grande 25996
reid 25995
##war 25994
beliefs 25993
congo 25992
##ification 25991
##dia 25990
si 25989
requiring 25988
##via 25987
casey 25986
1849 25985
regret 25984
streak 25983
rape 25982
depends 25981
syrian 25980
sprint 25979
pound 25978
tourists 25977
upcoming 25976
pub 25975
##xi 25974
tense 25973
##els 25972
practiced 25971
echo 25970
nationwide 25969
guild 25968
motorcycle 25967
liz 25966
##zar 25965
chiefs 25964
desired 25963
elena 25962
bye 25961
precious 25960
absorbed 25959
relatives 25958
booth 25957
pianist 25956
##mal 25955
citizenship 25954
exhausted 25953
wilhelm 25952
##ceae 25951
##hed 25950
noting 25949
quarterback 25948
urge 25947
hectares 25946
##gue 25945
ace 25944
holly 25943
##tal 25942
blonde 25941
davies 25940
parked 25939
sustainable 25938
stepping 25937
twentieth 25936
airfield 25935
galaxy 25934
nest 25933
chip 25932
##nell 25931
tan 25930
shaft 25929
paulo 25928
requirement 25927
##zy 25926
paradise 25925
tobacco 25924
trans 25923
renewed 25922
vietnamese 25921
##cker 25920
##ju 25919
suggesting 25918
catching 25917
holmes 25916
enjoying 25915
md 25914
trips 25913
colt 25912
holder 25911
butterfly 25910
nerve 25909
reformed 25908
cherry 25907
bowling 25906
trailer 25905
carriage 25904
goodbye 25903
appreciate 25902
toy 25901
joshua 25900
interactive 25899
enabled 25898
involve 25897
##kan 25896
collar 25895
determination 25894
bunch 25893
facebook 25892
recall 25891
shorts 25890
superintendent 25889
episcopal 25888
frustration 25887
giovanni 25886
nineteenth 25885
laser 25884
privately 25883
array 25882
circulation 25881
##ovic 25880
armstrong 25879
deals 25878
painful 25877
permit 25876
discrimination 25875
##wi 25874
aires 25873
retiring 25872
cottage 25871
ni 25870
##sta 25869
horizon 25868
ellen 25867
jamaica 25866
ripped 25865
fernando 25864
chapters 25863
playstation 25862
patron 25861
lecturer 25860
navigation 25859
behaviour 25858
genes 25857
georgian 25856
export 25855
solomon 25854
rivals 25853
swift 25852
seventeen 25851
rodriguez 25850
princeton 25849
independently 25848
sox 25847
1847 25846
arguing 25845
entity 25844
casting 25843
hank 25842
criteria 25841
oakland 25840
geographic 25839
milwaukee 25838
reflection 25837
expanding 25836
conquest 25835
dubbed 25834
##tv 25833
halt 25832
brave 25831
brunswick 25830
doi 25829
arched 25828
curtis 25827
divorced 25826
predominantly 25825
somerset 25824
streams 25823
ugly 25822
zoo 25821
horrible 25820
curved 25819
buenos 25818
fierce 25817
dictionary 25816
vector 25815
theological 25814
unions 25813
handful 25812
stability 25811
chan 25810
punjab 25809
segments 25808
##lly 25807
altar 25806
ignoring 25805
gesture 25804
monsters 25803
pastor 25802
##stone 25801
thighs 25800
unexpected 25799
operators 25798
abruptly 25797
coin 25796
compiled 25795
associates 25794
improving 25793
migration 25792
pin 25791
##ose 25790
compact 25789
collegiate 25788
reserved 25787
##urs 25786
quarterfinals 25785
roster 25784
restore 25783
assembled 25782
hurry 25781
oval 25780
##cies 25779
1846 25778
flags 25777
martha 25776
##del 25775
victories 25774
sharply 25773
##rated 25772
argues 25771
deadly 25770
neo 25769
drawings 25768
symbols 25767
performer 25766
##iel 25765
griffin 25764
restrictions 25763
editing 25762
andrews 25761
java 25760
journals 25759
arabia 25758
compositions 25757
dee 25756
pierce 25755
removing 25754
hindi 25753
casino 25752
runway 25751
civilians 25750
minds 25749
nasa 25748
hotels 25747
##zation 25746
refuge 25745
rent 25744
retain 25743
potentially 25742
conferences 25741
suburban 25740
conducting 25739
##tto 25738
##tions 25737
##tle 25736
descended 25735
massacre 25734
##cal 25733
ammunition 25732
terrain 25731
fork 25730
souls 25729
counts 25728
chelsea 25727
durham 25726
drives 25725
cab 25724
##bank 25723
perth 25722
realizing 25721
palestinian 25720
finn 25719
simpson 25718
##dal 25717
betty 25716
##ule 25715
moreover 25714
particles 25713
cardinals 25712
tent 25711
evaluation 25710
extraordinary 25709
##oid 25708
inscription 25707
##works 25706
wednesday 25705
chloe 25704
maintains 25703
panels 25702
ashley 25701
trucks 25700
##nation 25699
cluster 25698
sunlight 25697
strikes 25696
zhang 25695
##wing 25694
dialect 25693
canon 25692
##ap 25691
tucked 25690
##ws 25689
collecting 25688
##mas 25687
##can 25686
##sville 25685
maker 25684
quoted 25683
evan 25682
franco 25681
aria 25680
buying 25679
cleaning 25678
eva 25677
closet 25676
provision 25675
apollo 25674
clinic 25673
rat 25672
##ez 25671
necessarily 25670
ac 25669
##gle 25668
##ising 25667
venues 25666
flipped 25665
cent 25664
spreading 25663
trustees 25662
checking 25661
authorized 25660
##sco 25659
disappointed 25658
##ado 25657
notion 25656
duration 25655
trumpet 25654
hesitated 25653
topped 25652
brussels 25651
rolls 25650
theoretical 25649
hint 25648
define 25647
aggressive 25646
repeat 25645
wash 25644
peaceful 25643
optical 25642
width 25641
allegedly 25640
mcdonald 25639
strict 25638
copyright 25637
##illa 25636
investors 25635
mar 25634
jam 25633
witnesses 25632
sounding 25631
miranda 25630
michelle 25629
privacy 25628
hugo 25627
harmony 25626
##pp 25625
valid 25624
lynn 25623
glared 25622
nina 25621
102 25620
headquartered 25619
diving 25618
boarding 25617
gibson 25616
##ncy 25615
albanian 25614
marsh 25613
routine 25612
dealt 25611
enhanced 25610
er 25609
intelligent 25608
substance 25607
targeted 25606
enlisted 25605
discovers 25604
spinning 25603
observations 25602
pissed 25601
smoking 25600
rebecca 25599
capitol 25598
visa 25597
varied 25596
costume 25595
seemingly 25594
indies 25593
compensation 25592
surgeon 25591
thursday 25590
arsenal 25589
westminster 25588
suburbs 25587
rid 25586
anglican 25585
##ridge 25584
knots 25583
foods 25582
alumni 25581
lighter 25580
fraser 25579
whoever 25578
portal 25577
scandal 25576
##ray 25575
gavin 25574
advised 25573
instructor 25572
flooding 25571
terrorist 25570
##ale 25569
teenage 25568
interim 25567
senses 25566
duck 25565
teen 25564
thesis 25563
abby 25562
eager 25561
overcome 25560
##ile 25559
newport 25558
glenn 25557
rises 25556
shame 25555
##cc 25554
prompted 25553
priority 25552
forgot 25551
bomber 25550
nicolas 25549
protective 25548
360 25547
cartoon 25546
katherine 25545
breeze 25544
lonely 25543
trusted 25542
henderson 25541
richardson 25540
relax 25539
banner 25538
candy 25537
palms 25536
remarkable 25535
##rio 25534
legends 25533
cricketer 25532
essay 25531
ordained 25530
edmund 25529
rifles 25528
trigger 25527
##uri 25526
##away 25525
sail 25524
alert 25523
1830 25522
audiences 25521
penn 25520
sussex 25519
siblings 25518
pursued 25517
indianapolis 25516
resist 25515
rosa 25514
consequence 25513
succeed 25512
avoided 25511
1845 25510
##ulation 25509
inland 25508
##tie 25507
##nna 25506
counsel 25505
profession 25504
chronicle 25503
hurried 25502
##una 25501
eyebrow 25500
eventual 25499
bleeding 25498
innovative 25497
cure 25496
##dom 25495
committees 25494
accounting 25493
con 25492
scope 25491
hardy 25490
heather 25489
tenor 25488
gut 25487
herald 25486
codes 25485
tore 25484
scales 25483
wagon 25482
##oo 25481
luxury 25480
tin 25479
prefer 25478
fountain 25477
triangle 25476
bonds 25475
darling 25474
convoy 25473
dried 25472
traced 25471
beings 25470
troy 25469
accidentally 25468
slam 25467
findings 25466
smelled 25465
joey 25464
lawyers 25463
outcome 25462
steep 25461
bosnia 25460
configuration 25459
shifting 25458
toll 25457
brook 25456
performers 25455
lobby 25454
philosophical 25453
construct 25452
shrine 25451
aggregate 25450
boot 25449
cox 25448
phenomenon 25447
savage 25446
insane 25445
solely 25444
reynolds 25443
lifestyle 25442
##ima 25441
nationally 25440
holdings 25439
consideration 25438
enable 25437
edgar 25436
mo 25435
mama 25434
##tein 25433
fights 25432
relegation 25431
chances 25430
atomic 25429
hub 25428
conjunction 25427
awkward 25426
reactions 25425
currency 25424
finale 25423
kumar 25422
underwent 25421
steering 25420
elaborate 25419
gifts 25418
comprising 25417
melissa 25416
veins 25415
reasonable 25414
sunshine 25413
chi 25412
solve 25411
trails 25410
inhabited 25409
elimination 25408
ethics 25407
huh 25406
ana 25405
molly 25404
consent 25403
apartments 25402
layout 25401
marines 25400
##ces 25399
hunters 25398
bulk 25397
##oma 25396
hometown 25395
##wall 25394
##mont 25393
cracked 25392
reads 25391
neighbouring 25390
withdrawn 25389
admission 25388
wingspan 25387
damned 25386
anthology 25385
lancashire 25384
brands 25383
batting 25382
forgive 25381
cuban 25380
awful 25379
##lyn 25378
104 25377
dimensions 25376
imagination 25375
##ade 25374
dante 25373
##ship 25372
tracking 25371
desperately 25370
goalkeeper 25369
##yne 25368
groaned 25367
workshops 25366
confident 25365
burton 25364
gerald 25363
milton 25362
circus 25361
uncertain 25360
slope 25359
copenhagen 25358
sophia 25357
fog 25356
philosopher 25355
portraits 25354
accent 25353
cycling 25352
varying 25351
gripped 25350
larvae 25349
garrett 25348
specified 25347
scotia 25346
mature 25345
luther 25344
kurt 25343
rap 25342
##kes 25341
aerial 25340
750 25339
ferdinand 25338
heated 25337
es 25336
transported 25335
##shan 25334
safely 25333
nonetheless 25332
##orn 25331
##gal 25330
motors 25329
demanding 25328
##sburg 25327
startled 25326
##brook 25325
ally 25324
generate 25323
caps 25322
ghana 25321
stained 25320
demo 25319
mentions 25318
beds 25317
ap 25316
afterward 25315
diary 25314
##bling 25313
utility 25312
##iro 25311
richards 25310
1837 25309
conspiracy 25308
conscious 25307
shining 25306
footsteps 25305
observer 25304
cyprus 25303
urged 25302
loyalty 25301
developer 25300
probability 25299
olive 25298
upgraded 25297
gym 25296
miracle 25295
insects 25294
graves 25293
1844 25292
ourselves 25291
hydrogen 25290
amazon 25289
katie 25288
tickets 25287
poets 25286
##pm 25285
planes 25284
##pan 25283
prevention 25282
witnessed 25281
dense 25280
jin 25279
randy 25278
tang 25277
warehouse 25276
monroe 25275
bang 25274
archived 25273
elderly 25272
investigations 25271
alec 25270
granite 25269
mineral 25268
conflicts 25267
controlling 25266
aboriginal 25265
carlo 25264
##zu 25263
mechanics 25262
stan 25261
stark 25260
rhode 25259
skirt 25258
est 25257
##berry 25256
bombs 25255
respected 25254
##horn 25253
imposed 25252
limestone 25251
deny 25250
nominee 25249
memphis 25248
grabbing 25247
disabled 25246
##als 25245
amusement 25244
aa 25243
frankfurt 25242
corn 25241
referendum 25240
varies 25239
slowed 25238
disk 25237
firms 25236
unconscious 25235
incredible 25234
clue 25233
sue 25232
##zhou 25231
twist 25230
##cio 25229
joins 25228
idaho 25227
chad 25226
developers 25225
computing 25224
destroyer 25223
103 25222
mortal 25221
tucker 25220
kingston 25219
choices 25218
yu 25217
carson 25216
1800 25215
os 25214
whitney 25213
geneva 25212
pretend 25211
dimension 25210
staged 25209
plateau 25208
maya 25207
##une 25206
freestyle 25205
##bc 25204
rovers 25203
hiv 25202
##ids 25201
tristan 25200
classroom 25199
prospect 25198
##hus 25197
honestly 25196
diploma 25195
lied 25194
thermal 25193
auxiliary 25192
feast 25191
unlikely 25190
iata 25189
##tel 25188
morocco 25187
pounding 25186
treasury 25185
lithuania 25184
considerably 25183
1841 25182
dish 25181
1812 25180
geological 25179
matching 25178
stumbled 25177
destroying 25176
marched 25175
brien 25174
advances 25173
cake 25172
nicole 25171
belle 25170
settling 25169
measuring 25168
directing 25167
##mie 25166
tuesday 25165
bassist 25164
capabilities 25163
stunned 25162
fraud 25161
torpedo 25160
##list 25159
##phone 25158
anton 25157
wisdom 25156
surveillance 25155
ruined 25154
##ulate 25153
lawsuit 25152
healthcare 25151
theorem 25150
halls 25149
trend 25148
aka 25147
horizontal 25146
dozens 25145
acquire 25144
lasting 25143
swim 25142
hawk 25141
gorgeous 25140
fees 25139
vicinity 25138
decrease 25137
adoption 25136
tactics 25135
##ography 25134
pakistani 25133
##ole 25132
draws 25131
##hall 25130
willie 25129
burke 25128
heath 25127
algorithm 25126
integral 25125
powder 25124
elliott 25123
brigadier 25122
jackie 25121
tate 25120
varieties 25119
darker 25118
##cho 25117
lately 25116
cigarette 25115
specimens 25114
adds 25113
##ree 25112
##ensis 25111
##inger 25110
exploded 25109
finalist 25108
cia 25107
murders 25106
wilderness 25105
arguments 25104
nicknamed 25103
acceptance 25102
onwards 25101
manufacture 25100
robertson 25099
jets 25098
tampa 25097
enterprises 25096
blog 25095
loudly 25094
composers 25093
nominations 25092
1838 25091
ai 25090
malta 25089
inquiry 25088
automobile 25087
hosting 25086
viii 25085
rays 25084
tilted 25083
grief 25082
museums 25081
strategies 25080
furious 25079
euro 25078
equality 25077
cohen 25076
poison 25075
surrey 25074
wireless 25073
governed 25072
ridiculous 25071
moses 25070
##esh 25069
##room 25068
vanished 25067
##ito 25066
barnes 25065
attract 25064
morrison 25063
istanbul 25062
##iness 25061
absent 25060
rotation 25059
petition 25058
janet 25057
##logical 25056
satisfaction 25055
custody 25054
deliberately 25053
observatory 25052
comedian 25051
surfaces 25050
pinyin 25049
novelist 25048
strictly 25047
canterbury 25046
oslo 25045
monks 25044
embrace 25043
ibm 25042
jealous 25041
photograph 25040
continent 25039
dorothy 25038
marina 25037
doc 25036
excess 25035
holden 25034
allegations 25033
explaining 25032
stack 25031
avoiding 25030
lance 25029
storyline 25028
majesty 25027
poorly 25026
spike 25025
dos 25024
bradford 25023
raven 25022
travis 25021
classics 25020
proven 25019
voltage 25018
pillow 25017
fists 25016
butt 25015
1842 25014
interpreted 25013
##car 25012
1839 25011
gage 25010
telegraph 25009
lens 25008
promising 25007
expelled 25006
casual 25005
collector 25004
zones 25003
##min 25002
silly 25001
nintendo 25000
##kh 24999
##bra 24998
downstairs 24997
chef 24996
suspicious 24995
afl 24994
flies 24993
vacant 24992
uganda 24991
pregnancy 24990
condemned 24989
lutheran 24988
estimates 24987
cheap 24986
decree 24985
saxon 24984
proximity 24983
stripped 24982
idiot 24981
deposits 24980
contrary 24979
presenter 24978
magnus 24977
glacier 24976
im 24975
offense 24974
edwin 24973
##ori 24972
upright 24971
##long 24970
bolt 24969
##ois 24968
toss 24967
geographical 24966
##izes 24965
environments 24964
delicate 24963
marking 24962
abstract 24961
xavier 24960
nails 24959
windsor 24958
plantation 24957
occurring 24956
equity 24955
saskatchewan 24954
fears 24953
drifted 24952
sequences 24951
vegetation 24950
revolt 24949
##stic 24948
1843 24947
sooner 24946
fusion 24945
opposing 24944
nato 24943
skating 24942
1836 24941
secretly 24940
ruin 24939
lease 24938
##oc 24937
edit 24936
##nne 24935
flora 24934
anxiety 24933
ruby 24932
##ological 24931
##mia 24930
tel 24929
bout 24928
taxi 24927
emmy 24926
frost 24925
rainbow 24924
compounds 24923
foundations 24922
rainfall 24921
assassination 24920
nightmare 24919
dominican 24918
##win 24917
achievements 24916
deserve 24915
orlando 24914
intact 24913
armenia 24912
##nte 24911
calgary 24910
valentine 24909
106 24908
marion 24907
proclaimed 24906
theodore 24905
bells 24904
courtyard 24903
thigh 24902
gonzalez 24901
console 24900
troop 24899
minimal 24898
monte 24897
everyday 24896
##ence 24895
##if 24894
supporter 24893
terrorism 24892
buck 24891
openly 24890
presbyterian 24889
activists 24888
carpet 24887
##iers 24886
rubbing 24885
uprising 24884
##yi 24883
cute 24882
conceived 24881
legally 24880
##cht 24879
millennium 24878
cello 24877
velocity 24876
ji 24875
rescued 24874
cardiff 24873
1835 24872
rex 24871
concentrate 24870
senators 24869
beard 24868
rendered 24867
glowing 24866
battalions 24865
scouts 24864
competitors 24863
sculptor 24862
catalogue 24861
arctic 24860
ion 24859
raja 24858
bicycle 24857
wow 24856
glancing 24855
lawn 24854
##woman 24853
gentleman 24852
lighthouse 24851
publish 24850
predicted 24849
calculated 24848
##val 24847
variants 24846
##gne 24845
strain 24844
##ui 24843
winston 24842
deceased 24841
##nus 24840
touchdowns 24839
brady 24838
caleb 24837
sinking 24836
echoed 24835
crush 24834
hon 24833
blessed 24832
protagonist 24831
hayes 24830
endangered 24829
magnitude 24828
editors 24827
##tine 24826
estimate 24825
responsibilities 24824
##mel 24823
backup 24822
laying 24821
consumed 24820
sealed 24819
zurich 24818
lovers 24817
frustrated 24816
##eau 24815
ahmed 24814
kicking 24813
mit 24812
treasurer 24811
1832 24810
biblical 24809
refuse 24808
terrified 24807
pump 24806
agrees 24805
genuine 24804
imprisonment 24803
refuses 24802
plymouth 24801
##hen 24800
lou 24799
##nen 24798
tara 24797
trembling 24796
antarctic 24795
ton 24794
learns 24793
##tas 24792
crap 24791
crucial 24790
faction 24789
atop 24788
##borough 24787
wrap 24786
lancaster 24785
odds 24784
hopkins 24783
erik 24782
lyon 24781
##eon 24780
bros 24779
##ode 24778
snap 24777
locality 24776
tips 24775
empress 24774
crowned 24773
cal 24772
acclaimed 24771
chuckled 24770
##ory 24769
clara 24768
sends 24767
mild 24766
towel 24765
##fl 24764
##day 24763
##а 24762
wishing 24761
assuming 24760
interviewed 24759
##bal 24758
##die 24757
interactions 24756
eden 24755
cups 24754
helena 24753
##lf 24752
indie 24751
beck 24750
##fire 24749
batteries 24748
filipino 24747
wizard 24746
parted 24745
##lam 24744
traces 24743
##born 24742
rows 24741
idol 24740
albany 24739
delegates 24738
##ees 24737
##sar 24736
discussions 24735
##ex 24734
notre 24733
instructed 24732
belgrade 24731
highways 24730
suggestion 24729
lauren 24728
possess 24727
orientation 24726
alexandria 24725
abdul 24724
beats 24723
salary 24722
reunion 24721
ludwig 24720
alright 24719
wagner 24718
intimate 24717
pockets 24716
slovenia 24715
hugged 24714
brighton 24713
merchants 24712
cruel 24711
stole 24710
trek 24709
slopes 24708
repairs 24707
enrollment 24706
politically 24705
underlying 24704
promotional 24703
counting 24702
boeing 24701
##bb 24700
isabella 24699
naming 24698
##и 24697
keen 24696
bacteria 24695
listing 24694
separately 24693
belfast 24692
ussr 24691
450 24690
lithuanian 24689
anybody 24688
ribs 24687
sphere 24686
martinez 24685
cock 24684
embarrassed 24683
proposals 24682
fragments 24681
nationals 24680
##fs 24679
##wski 24678
premises 24677
fin 24676
1500 24675
alpine 24674
matched 24673
freely 24672
bounded 24671
jace 24670
sleeve 24669
##af 24668
gaming 24667
pier 24666
populated 24665
evident 24664
##like 24663
frances 24662
flooded 24661
##dle 24660
frightened 24659
pour 24658
trainer 24657
framed 24656
visitor 24655
challenging 24654
pig 24653
wickets 24652
##fold 24651
infected 24650
email 24649
##pes 24648
arose 24647
##aw 24646
reward 24645
ecuador 24644
oblast 24643
vale 24642
ch 24641
shuttle 24640
##usa 24639
bach 24638
rankings 24637
forbidden 24636
cornwall 24635
accordance 24634
salem 24633
consumers 24632
bruno 24631
fantastic 24630
toes 24629
machinery 24628
resolved 24627
julius 24626
remembering 24625
propaganda 24624
iceland 24623
bombardment 24622
tide 24621
contacts 24620
wives 24619
##rah 24618
concerto 24617
macdonald 24616
albania 24615
implement 24614
daisy 24613
tapped 24612
sudan 24611
helmet 24610
angela 24609
mistress 24608
##lic 24607
crop 24606
sunk 24605
finest 24604
##craft 24603
hostile 24602
##ute 24601
##tsu 24600
boxer 24599
fr 24598
paths 24597
adjusted 24596
habit 24595
ballot 24594
supervision 24593
soprano 24592
##zen 24591
bullets 24590
wicked 24589
sunset 24588
regiments 24587
disappear 24586
lamp 24585
performs 24584
app 24583
##gia 24582
##oa 24581
rabbit 24580
digging 24579
incidents 24578
entries 24577
##cion 24576
dishes 24575
##oi 24574
introducing 24573
##ati 24572
##fied 24571
freshman 24570
slot 24569
jill 24568
tackles 24567
baroque 24566
backs 24565
##iest 24564
lone 24563
sponsor 24562
destiny 24561
altogether 24560
convert 24559
##aro 24558
consensus 24557
shapes 24556
demonstration 24555
basically 24554
feminist 24553
auction 24552
artifacts 24551
##bing 24550
strongest 24549
twitter 24548
halifax 24547
2019 24546
allmusic 24545
mighty 24544
smallest 24543
precise 24542
alexandra 24541
viola 24540
##los 24539
##ille 24538
manuscripts 24537
##illo 24536
dancers 24535
ari 24534
managers 24533
monuments 24532
blades 24531
barracks 24530
springfield 24529
maiden 24528
consolidated 24527
electron 24526
##end 24525
berry 24524
airing 24523
wheat 24522
nobel 24521
inclusion 24520
blair 24519
payments 24518
geography 24517
bee 24516
cc 24515
eleanor 24514
react 24513
##hurst 24512
afc 24511
manitoba 24510
##yu 24509
su 24508
lineup 24507
fitness 24506
recreational 24505
investments 24504
airborne 24503
disappointment 24502
##dis 24501
edmonton 24500
viewing 24499
##row 24498
renovation 24497
##cast 24496
infant 24495
bankruptcy 24494
roses 24493
aftermath 24492
pavilion 24491
##yer 24490
carpenter 24489
withdrawal 24488
ladder 24487
##hy 24486
discussing 24485
popped 24484
reliable 24483
agreements 24482
rochester 24481
##abad 24480
curves 24479
bombers 24478
220 24477
rao 24476
reverend 24475
decreased 24474
choosing 24473
107 24472
stiff 24471
consulting 24470
naples 24469
crawford 24468
tracy 24467
ka 24466
ribbon 24465
cops 24464
##lee 24463
crushed 24462
deciding 24461
unified 24460
teenager 24459
accepting 24458
flagship 24457
explorer 24456
poles 24455
sanchez 24454
inspection 24453
revived 24452
skilled 24451
induced 24450
exchanged 24449
flee 24448
locals 24447
tragedy 24446
swallow 24445
loading 24444
hanna 24443
demonstrate 24442
##ela 24441
salvador 24440
flown 24439
contestants 24438
civilization 24437
##ines 24436
wanna 24435
rhodes 24434
fletcher 24433
hector 24432
knocking 24431
considers 24430
##ough 24429
nash 24428
mechanisms 24427
sensed 24426
mentally 24425
walt 24424
unclear 24423
##eus 24422
renovated 24421
madame 24420
##cks 24419
crews 24418
governmental 24417
##hin 24416
undertaken 24415
monkey 24414
##ben 24413
##ato 24412
fatal 24411
armored 24410
copa 24409
caves 24408
governance 24407
grasp 24406
perception 24405
certification 24404
froze 24403
damp 24402
tugged 24401
wyoming 24400
##rg 24399
##ero 24398
newman 24397
##lor 24396
nerves 24395
curiosity 24394
graph 24393
115 24392
##ami 24391
withdraw 24390
tunnels 24389
dull 24388
meredith 24387
moss 24386
exhibits 24385
neighbors 24384
communicate 24383
accuracy 24382
explored 24381
raiders 24380
republicans 24379
secular 24378
kat 24377
superman 24376
penny 24375
criticised 24374
##tch 24373
freed 24372
update 24371
conviction 24370
wade 24369
ham 24368
likewise 24367
delegation 24366
gotta 24365
doll 24364
promises 24363
technological 24362
myth 24361
nationality 24360
resolve 24359
convent 24358
##mark 24357
sharon 24356
dig 24355
sip 24354
coordinator 24353
entrepreneur 24352
fold 24351
##dine 24350
capability 24349
councillor 24348
synonym 24347
blown 24346
swan 24345
cursed 24344
1815 24343
jonas 24342
haired 24341
sofa 24340
canvas 24339
keeper 24338
rivalry 24337
##hart 24336
rapper 24335
speedway 24334
swords 24333
postal 24332
maxwell 24331
estonia 24330
potter 24329
recurring 24328
##nn 24327
##ave 24326
errors 24325
##oni 24324
cognitive 24323
1834 24322
##² 24321
claws 24320
nadu 24319
roberto 24318
bce 24317
wrestler 24316
ellie 24315
##ations 24314
infinite 24313
ink 24312
##tia 24311
presumably 24310
finite 24309
staircase 24308
108 24307
noel 24306
patricia 24305
nacional 24304
##cation 24303
chill 24302
eternal 24301
tu 24300
preventing 24299
prussia 24298
fossil 24297
limbs 24296
##logist 24295
ernst 24294
frog 24293
perez 24292
rene 24291
##ace 24290
pizza 24289
prussian 24288
##ios 24287
##vy 24286
molecules 24285
regulatory 24284
answering 24283
opinions 24282
sworn 24281
lengths 24280
supposedly 24279
hypothesis 24278
upward 24277
habitats 24276
seating 24275
ancestors 24274
drank 24273
yield 24272
hd 24271
synthesis 24270
researcher 24269
modest 24268
##var 24267
mothers 24266
peered 24265
voluntary 24264
homeland 24263
##the 24262
acclaim 24261
##igan 24260
static 24259
valve 24258
luxembourg 24257
alto 24256
carroll 24255
fe 24254
receptor 24253
norton 24252
ambulance 24251
##tian 24250
johnston 24249
catholics 24248
depicting 24247
jointly 24246
elephant 24245
gloria 24244
mentor 24243
badge 24242
ahmad 24241
distinguish 24240
remarked 24239
councils 24238
precisely 24237
allison 24236
advancing 24235
detection 24234
crowded 24233
##10 24232
cooperative 24231
ankle 24230
mercedes 24229
dagger 24228
surrendered 24227
pollution 24226
commit 24225
subway 24224
jeffrey 24223
lesson 24222
sculptures 24221
provider 24220
##fication 24219
membrane 24218
timothy 24217
rectangular 24216
fiscal 24215
heating 24214
teammate 24213
basket 24212
particle 24211
anonymous 24210
deployment 24209
##ple 24208
missiles 24207
courthouse 24206
proportion 24205
shoe 24204
sec 24203
##ller 24202
complaints 24201
forbes 24200
blacks 24199
abandon 24198
remind 24197
sizes 24196
overwhelming 24195
autobiography 24194
natalie 24193
##awa 24192
risks 24191
contestant 24190
countryside 24189
babies 24188
scorer 24187
invaded 24186
enclosed 24185
proceed 24184
hurling 24183
disorders 24182
##cu 24181
reflecting 24180
continuously 24179
cruiser 24178
graduates 24177
freeway 24176
investigated 24175
ore 24174
deserved 24173
maid 24172
blocking 24171
phillip 24170
jorge 24169
shakes 24168
dove 24167
mann 24166
variables 24165
lacked 24164
burden 24163
accompanying 24162
que 24161
consistently 24160
organizing 24159
provisional 24158
complained 24157
endless 24156
##rm 24155
tubes 24154
juice 24153
georges 24152
krishna 24151
mick 24150
labels 24149
thriller 24148
##uch 24147
laps 24146
arcade 24145
sage 24144
snail 24143
##table 24142
shannon 24141
fi 24140
laurence 24139
seoul 24138
vacation 24137
presenting 24136
hire 24135
churchill 24134
surprisingly 24133
prohibited 24132
savannah 24131
technically 24130
##oli 24129
170 24128
##lessly 24127
testimony 24126
suited 24125
speeds 24124
toys 24123
romans 24122
mlb 24121
flowering 24120
measurement 24119
talented 24118
kay 24117
settings 24116
charleston 24115
expectations 24114
shattered 24113
achieving 24112
triumph 24111
ceremonies 24110
portsmouth 24109
lanes 24108
mandatory 24107
loser 24106
stretching 24105
cologne 24104
realizes 24103
seventy 24102
cornell 24101
careers 24100
webb 24099
##ulating 24098
americas 24097
budapest 24096
ava 24095
suspicion 24094
##ison 24093
yo 24092
conrad 24091
##hai 24090
sterling 24089
jessie 24088
rector 24087
##az 24086
1831 24085
transform 24084
organize 24083
loans 24082
christine 24081
volcanic 24080
warrant 24079
slender 24078
summers 24077
subfamily 24076
newer 24075
danced 24074
dynamics 24073
rhine 24072
proceeds 24071
heinrich 24070
gastropod 24069
commands 24068
sings 24067
facilitate 24066
easter 24065
ra 24064
positioned 24063
responses 24062
expense 24061
fruits 24060
yanked 24059
imported 24058
25th 24057
velvet 24056
vic 24055
primitive 24054
tribune 24053
baldwin 24052
neighbourhood 24051
donna 24050
rip 24049
hay 24048
pr 24047
##uro 24046
1814 24045
espn 24044
welcomed 24043
##aria 24042
qualifier 24041
glare 24040
highland 24039
timing 24038
##cted 24037
shells 24036
eased 24035
geometry 24034
louder 24033
exciting 24032
slovakia 24031
##sion 24030
##iz 24029
##lot 24028
savings 24027
prairie 24026
##ques 24025
marching 24024
rafael 24023
tonnes 24022
##lled 24021
curtain 24020
preceding 24019
shy 24018
heal 24017
greene 24016
worthy 24015
##pot 24014
detachment 24013
bury 24012
sherman 24011
##eck 24010
reinforced 24009
seeks 24008
bottles 24007
contracted 24006
duchess 24005
outfit 24004
walsh 24003
##sc 24002
mickey 24001
##ase 24000
geoffrey 23999
archer 23998
squeeze 23997
dawson 23996
eliminate 23995
invention 23994
##enberg 23993
neal 23992
##eth 23991
stance 23990
dealer 23989
coral 23988
maple 23987
retire 23986
polo 23985
simplified 23984
##ht 23983
1833 23982
hid 23981
watts 23980
backwards 23979
jules 23978
##oke 23977
genesis 23976
mt 23975
frames 23974
rebounds 23973
burma 23972
woodland 23971
moist 23970
santos 23969
whispers 23968
drained 23967
subspecies 23966
##aa 23965
streaming 23964
ulster 23963
burnt 23962
correspondence 23961
maternal 23960
gerard 23959
denis 23958
stealing 23957
##load 23956
genius 23955
duchy 23954
##oria 23953
inaugurated 23952
momentum 23951
suits 23950
placement 23949
sovereign 23948
clause 23947
thames 23946
##hara 23945
confederation 23944
reservation 23943
sketch 23942
yankees 23941
lets 23940
rotten 23939
charm 23938
hal 23937
verses 23936
ultra 23935
commercially 23934
dot 23933
salon 23932
citation 23931
adopt 23930
winnipeg 23929
mist 23928
allocated 23927
cairo 23926
##boy 23925
jenkins 23924
interference 23923
objectives 23922
##wind 23921
1820 23920
portfolio 23919
armoured 23918
sectors 23917
##eh 23916
initiatives 23915
##world 23914
integrity 23913
exercises 23912
robe 23911
tap 23910
ab 23909
gazed 23908
##tones 23907
distracted 23906
rulers 23905
111 23904
favorable 23903
jerome 23902
tended 23901
cart 23900
factories 23899
##eri 23898
diplomat 23897
valued 23896
gravel 23895
charitable 23894
##try 23893
calvin 23892
exploring 23891
chang 23890
shepherd 23889
terrace 23888
pdf 23887
pupil 23886
##ural 23885
reflects 23884
ups 23883
##rch 23882
governors 23881
shelf 23880
depths 23879
##nberg 23878
trailed 23877
crest 23876
tackle 23875
##nian 23874
##ats 23873
hatred 23872
##kai 23871
clare 23870
makers 23869
ethiopia 23868
longtime 23867
detected 23866
embedded 23865
lacking 23864
slapped 23863
rely 23862
thomson 23861
anticipation 23860
iso 23859
morton 23858
successive 23857
agnes 23856
screenwriter 23855
straightened 23854
philippe 23853
playwright 23852
haunted 23851
licence 23850
iris 23849
intentions 23848
sutton 23847
112 23846
logical 23845
correctly 23844
##weight 23843
branded 23842
licked 23841
tipped 23840
silva 23839
ricky 23838
narrator 23837
requests 23836
##ents 23835
greeted 23834
supernatural 23833
cow 23832
##wald 23831
lung 23830
refusing 23829
employer 23828
strait 23827
gaelic 23826
liner 23825
##piece 23824
zoe 23823
sabha 23822
##mba 23821
driveway 23820
harvest 23819
prints 23818
bates 23817
reluctantly 23816
threshold 23815
algebra 23814
ira 23813
wherever 23812
coupled 23811
240 23810
assumption 23809
picks 23808
##air 23807
designers 23806
raids 23805
gentlemen 23804
##ean 23803
roller 23802
blowing 23801
leipzig 23800
locks 23799
screw 23798
dressing 23797
strand 23796
##lings 23795
scar 23794
dwarf 23793
depicts 23792
##nu 23791
nods 23790
##mine 23789
differ 23788
boris 23787
##eur 23786
yuan 23785
flip 23784
##gie 23783
mob 23782
invested 23781
questioning 23780
applying 23779
##ture 23778
shout 23777
##sel 23776
gameplay 23775
blamed 23774
illustrations 23773
bothered 23772
weakness 23771
rehabilitation 23770
##of 23769
##zes 23768
envelope 23767
rumors 23766
miners 23765
leicester 23764
subtle 23763
kerry 23762
##ico 23761
ferguson 23760
##fu 23759
premiership 23758
ne 23757
##cat 23756
bengali 23755
prof 23754
catches 23753
remnants 23752
dana 23751
##rily 23750
shouting 23749
presidents 23748
baltic 23747
ought 23746
ghosts 23745
dances 23744
sailors 23743
shirley 23742
fancy 23741
dominic 23740
##bie 23739
madonna 23738
##rick 23737
bark 23736
buttons 23735
gymnasium 23734
ashes 23733
liver 23732
toby 23731
oath 23730
providence 23729
doyle 23728
evangelical 23727
nixon 23726
cement 23725
carnegie 23724
embarked 23723
hatch 23722
surroundings 23721
guarantee 23720
needing 23719
pirate 23718
essence 23717
##bee 23716
filter 23715
crane 23714
hammond 23713
projected 23712
immune 23711
percy 23710
twelfth 23709
##ult 23708
regent 23707
doctoral 23706
damon 23705
mikhail 23704
##ichi 23703
lu 23702
critically 23701
elect 23700
realised 23699
abortion 23698
acute 23697
screening 23696
mythology 23695
steadily 23694
##fc 23693
frown 23692
nottingham 23691
kirk 23690
wa 23689
minneapolis 23688
##rra 23687
module 23686
algeria 23685
mc 23684
nautical 23683
encounters 23682
surprising 23681
statues 23680
availability 23679
shirts 23678
pie 23677
alma 23676
brows 23675
munster 23674
mack 23673
soup 23672
crater 23671
tornado 23670
sanskrit 23669
cedar 23668
explosive 23667
bordered 23666
dixon 23665
planets 23664
stamp 23663
exam 23662
happily 23661
##bble 23660
carriers 23659
kidnapped 23658
##vis 23657
accommodation 23656
emigrated 23655
##met 23654
knockout 23653
correspondent 23652
violation 23651
profits 23650
peaks 23649
lang 23648
specimen 23647
agenda 23646
ancestry 23645
pottery 23644
spelling 23643
equations 23642
obtaining 23641
ki 23640
linking 23639
1825 23638
debris 23637
asylum 23636
##20 23635
buddhism 23634
teddy 23633
##ants 23632
gazette 23631
##nger 23630
##sse 23629
dental 23628
eligibility 23627
utc 23626
fathers 23625
averaged 23624
zimbabwe 23623
francesco 23622
coloured 23621
hissed 23620
translator 23619
lynch 23618
mandate 23617
humanities 23616
mackenzie 23615
uniforms 23614
lin 23613
##iana 23612
##gio 23611
asset 23610
mhz 23609
fitting 23608
samantha 23607
genera 23606
wei 23605
rim 23604
beloved 23603
shark 23602
riot 23601
entities 23600
expressions 23599
indo 23598
carmen 23597
slipping 23596
owing 23595
abbot 23594
neighbor 23593
sidney 23592
##av 23591
rats 23590
recommendations 23589
encouraging 23588
squadrons 23587
anticipated 23586
commanders 23585
conquered 23584
##oto 23583
donations 23582
diagnosed 23581
##mond 23580
divide 23579
##iva 23578
guessed 23577
decoration 23576
vernon 23575
auditorium 23574
revelation 23573
conversations 23572
##kers 23571
##power 23570
herzegovina 23569
dash 23568
alike 23567
protested 23566
lateral 23565
herman 23564
accredited 23563
mg 23562
##gent 23561
freeman 23560
mel 23559
fiji 23558
crow 23557
crimson 23556
##rine 23555
livestock 23554
##pped 23553
humanitarian 23552
bored 23551
oz 23550
whip 23549
##lene 23548
##ali 23547
legitimate 23546
alter 23545
grinning 23544
spelled 23543
anxious 23542
oriental 23541
wesley 23540
##nin 23539
##hole 23538
carnival 23537
controller 23536
detect 23535
##ssa 23534
bowed 23533
educator 23532
kosovo 23531
macedonia 23530
##sin 23529
occupy 23528
mastering 23527
stephanie 23526
janeiro 23525
para 23524
unaware 23523
nurses 23522
noon 23521
135 23520
cam 23519
hopefully 23518
ranger 23517
combine 23516
sociology 23515
polar 23514
rica 23513
##eer 23512
neill 23511
##sman 23510
holocaust 23509
##ip 23508
doubled 23507
lust 23506
1828 23505
109 23504
decent 23503
cooling 23502
unveiled 23501
##card 23500
1829 23499
nsw 23498
homer 23497
chapman 23496
meyer 23495
##gin 23494
dive 23493
mae 23492
reagan 23491
expertise 23490
##gled 23489
darwin 23488
brooke 23487
sided 23486
prosecution 23485
investigating 23484
comprised 23483
petroleum 23482
genres 23481
reluctant 23480
differently 23479
trilogy 23478
johns 23477
vegetables 23476
corpse 23475
highlighted 23474
lounge 23473
pension 23472
unsuccessfully 23471
elegant 23470
aided 23469
ivory 23468
beatles 23467
amelia 23466
cain 23465
dubai 23464
sunny 23463
immigrant 23462
babe 23461
click 23460
##nder 23459
underwater 23458
pepper 23457
combining 23456
mumbled 23455
atlas 23454
horns 23453
accessed 23452
ballad 23451
physicians 23450
homeless 23449
gestured 23448
rpm 23447
freak 23446
louisville 23445
corporations 23444
patriots 23443
prizes 23442
rational 23441
warn 23440
modes 23439
decorative 23438
overnight 23437
din 23436
troubled 23435
phantom 23434
##ort 23433
monarch 23432
sheer 23431
##dorf 23430
generals 23429
guidelines 23428
organs 23427
addresses 23426
##zon 23425
enhance 23424
curling 23423
parishes 23422
cord 23421
##kie 23420
linux 23419
caesar 23418
deutsche 23417
bavaria 23416
##bia 23415
coleman 23414
cyclone 23413
##eria 23412
bacon 23411
petty 23410
##yama 23409
##old 23408
hampton 23407
diagnosis 23406
1824 23405
throws 23404
complexity 23403
rita 23402
disputed 23401
##₃ 23400
pablo 23399
##sch 23398
marketed 23397
trafficking 23396
##ulus 23395
examine 23394
plague 23393
formats 23392
##oh 23391
vault 23390
faithful 23389
##bourne 23388
webster 23387
##ox 23386
highlights 23385
##ient 23384
##ann 23383
phones 23382
vacuum 23381
sandwich 23380
modeling 23379
##gated 23378
bolivia 23377
clergy 23376
qualities 23375
isabel 23374
##nas 23373
##ars 23372
wears 23371
screams 23370
reunited 23369
annoyed 23368
bra 23367
##ancy 23366
##rate 23365
differential 23364
transmitter 23363
tattoo 23362
container 23361
poker 23360
##och 23359
excessive 23358
resides 23357
cowboys 23356
##tum 23355
augustus 23354
trash 23353
providers 23352
statute 23351
retreated 23350
balcony 23349
reversed 23348
void 23347
storey 23346
preceded 23345
masses 23344
leap 23343
laughs 23342
neighborhoods 23341
wards 23340
schemes 23339
falcon 23338
santo 23337
battlefield 23336
pad 23335
ronnie 23334
thread 23333
lesbian 23332
venus 23331
##dian 23330
beg 23329
sandstone 23328
daylight 23327
punched 23326
gwen 23325
analog 23324
stroked 23323
wwe 23322
acceptable 23321
measurements 23320
dec 23319
toxic 23318
##kel 23317
adequate 23316
surgical 23315
economist 23314
parameters 23313
varsity 23312
##sberg 23311
quantity 23310
ella 23309
##chy 23308
##rton 23307
countess 23306
generating 23305
precision 23304
diamonds 23303
expressway 23302
ga 23301
##ı 23300
1821 23299
uruguay 23298
talents 23297
galleries 23296
expenses 23295
scanned 23294
colleague 23293
outlets 23292
ryder 23291
lucien 23290
##ila 23289
paramount 23288
##bon 23287
syracuse 23286
dim 23285
fangs 23284
gown 23283
sweep 23282
##sie 23281
toyota 23280
missionaries 23279
websites 23278
##nsis 23277
sentences 23276
adviser 23275
val 23274
trademark 23273
spells 23272
##plane 23271
patience 23270
starter 23269
slim 23268
##borg 23267
toe 23266
incredibly 23265
shoots 23264
elliot 23263
nobility 23262
##wyn 23261
cowboy 23260
endorsed 23259
gardner 23258
tendency 23257
persuaded 23256
organisms 23255
emissions 23254
kazakhstan 23253
amused 23252
boring 23251
chips 23250
themed 23249
##hand 23248
llc 23247
constantinople 23246
chasing 23245
systematic 23244
guatemala 23243
borrowed 23242
erin 23241
carey 23240
##hard 23239
highlands 23238
struggles 23237
1810 23236
##ifying 23235
##ced 23234
wong 23233
exceptions 23232
develops 23231
enlarged 23230
kindergarten 23229
castro 23228
##ern 23227
##rina 23226
leigh 23225
zombie 23224
juvenile 23223
##most 23222
consul 23221
##nar 23220
sailor 23219
hyde 23218
clarence 23217
intensive 23216
pinned 23215
nasty 23214
useless 23213
jung 23212
clayton 23211
stuffed 23210
exceptional 23209
ix 23208
apostolic 23207
230 23206
transactions 23205
##dge 23204
exempt 23203
swinging 23202
cove 23201
religions 23200
##ash 23199
shields 23198
dairy 23197
bypass 23196
190 23195
pursuing 23194
bug 23193
joyce 23192
bombay 23191
chassis 23190
southampton 23189
chat 23188
interact 23187
redesignated 23186
##pen 23185
nascar 23184
pray 23183
salmon 23182
rigid 23181
regained 23180
malaysian 23179
grim 23178
publicity 23177
constituted 23176
capturing 23175
toilet 23174
delegate 23173
purely 23172
tray 23171
drift 23170
loosely 23169
striker 23168
weakened 23167
trinidad 23166
mitch 23165
itv 23164
defines 23163
transmitted 23162
ming 23161
scarlet 23160
nodding 23159
fitzgerald 23158
fu 23157
narrowly 23156
sp 23155
tooth 23154
standings 23153
virtue 23152
##₁ 23151
##wara 23150
##cting 23149
chateau 23148
gloves 23147
lid 23146
##nel 23145
hurting 23144
conservatory 23143
##pel 23142
sinclair 23141
reopened 23140
sympathy 23139
nigerian 23138
strode 23137
advocated 23136
optional 23135
chronic 23134
discharge 23133
##rc 23132
suck 23131
compatible 23130
laurel 23129
stella 23128
shi 23127
fails 23126
wage 23125
dodge 23124
128 23123
informal 23122
sorts 23121
levi 23120
buddha 23119
villagers 23118
##aka 23117
chronicles 23116
heavier 23115
summoned 23114
gateway 23113
3000 23112
eleventh 23111
jewelry 23110
translations 23109
accordingly 23108
seas 23107
##ency 23106
fiber 23105
pyramid 23104
cubic 23103
dragging 23102
##ista 23101
caring 23100
##ops 23099
android 23098
contacted 23097
lunar 23096
##dt 23095
kai 23094
lisbon 23093
patted 23092
1826 23091
sacramento 23090
theft 23089
madagascar 23088
subtropical 23087
disputes 23086
ta 23085
holidays 23084
piper 23083
willow 23082
mare 23081
cane 23080
itunes 23079
newfoundland 23078
benny 23077
companions 23076
dong 23075
raj 23074
observe 23073
roar 23072
charming 23071
plaque 23070
tibetan 23069
fossils 23068
enacted 23067
manning 23066
bubble 23065
tina 23064
tanzania 23063
##eda 23062
##hir 23061
funk 23060
swamp 23059
deputies 23058
cloak 23057
ufc 23056
scenario 23055
par 23054
scratch 23053
metals 23052
anthem 23051
guru 23050
engaging 23049
specially 23048
##boat 23047
dialects 23046
nineteen 23045
cecil 23044
duet 23043
disability 23042
messenger 23041
unofficial 23040
##lies 23039
defunct 23038
eds 23037
moonlight 23036
drainage 23035
surname 23034
puzzle 23033
honda 23032
switching 23031
conservatives 23030
mammals 23029
knox 23028
broadcaster 23027
sidewalk 23026
cope 23025
##ried 23024
benson 23023
princes 23022
peterson 23021
##sal 23020
bedford 23019
sharks 23018
eli 23017
wreck 23016
alberto 23015
gasp 23014
archaeology 23013
lgbt 23012
teaches 23011
securities 23010
madness 23009
compromise 23008
waving 23007
coordination 23006
davidson 23005
visions 23004
leased 23003
possibilities 23002
eighty 23001
jun 23000
fernandez 22999
enthusiasm 22998
assassin 22997
sponsorship 22996
reviewer 22995
kingdoms 22994
estonian 22993
laboratories 22992
##fy 22991
##nal 22990
applies 22989
verb 22988
celebrations 22987
##zzo 22986
rowing 22985
lightweight 22984
sadness 22983
submit 22982
mvp 22981
balanced 22980
dude 22979
##vas 22978
explicitly 22977
metric 22976
magnificent 22975
mound 22974
brett 22973
mohammad 22972
mistakes 22971
irregular 22970
##hing 22969
##ass 22968
sanders 22967
betrayed 22966
shipped 22965
surge 22964
##enburg 22963
reporters 22962
termed 22961
georg 22960
pity 22959
verbal 22958
bulls 22957
abbreviated 22956
enabling 22955
appealed 22954
##are 22953
##atic 22952
sicily 22951
sting 22950
heel 22949
sweetheart 22948
bart 22947
spacecraft 22946
brutal 22945
monarchy 22944
##tter 22943
aberdeen 22942
cameo 22941
diane 22940
##ub 22939
survivor 22938
clyde 22937
##aries 22936
complaint 22935
##makers 22934
clarinet 22933
delicious 22932
chilean 22931
karnataka 22930
coordinates 22929
1818 22928
panties 22927
##rst 22926
pretending 22925
ar 22924
dramatically 22923
kiev 22922
bella 22921
tends 22920
distances 22919
113 22918
catalog 22917
launching 22916
instances 22915
telecommunications 22914
portable 22913
lindsay 22912
vatican 22911
##eim 22910
angles 22909
aliens 22908
marker 22907
stint 22906
screens 22905
bolton 22904
##rne 22903
judy 22902
wool 22901
benedict 22900
plasma 22899
europa 22898
spark 22897
imaging 22896
filmmaker 22895
swiftly 22894
##een 22893
contributor 22892
##nor 22891
opted 22890
stamps 22889
apologize 22888
financing 22887
butter 22886
gideon 22885
sophisticated 22884
alignment 22883
avery 22882
chemicals 22881
yearly 22880
speculation 22879
prominence 22878
professionally 22877
##ils 22876
immortal 22875
institutional 22874
inception 22873
wrists 22872
identifying 22871
tribunal 22870
derives 22869
gains 22868
##wo 22867
papal 22866
preference 22865
linguistic 22864
vince 22863
operative 22862
brewery 22861
##ont 22860
unemployment 22859
boyd 22858
##ured 22857
##outs 22856
albeit 22855
prophet 22854
1813 22853
bi 22852
##rr 22851
##face 22850
##rad 22849
quarterly 22848
asteroid 22847
cleaned 22846
radius 22845
temper 22844
##llen 22843
telugu 22842
jerk 22841
viscount 22840
menu 22839
##ote 22838
glimpse 22837
##aya 22836
yacht 22835
hawaiian 22834
baden 22833
##rl 22832
laptop 22831
readily 22830
##gu 22829
monetary 22828
offshore 22827
scots 22826
watches 22825
##yang 22824
##arian 22823
upgrade 22822
needle 22821
xbox 22820
lea 22819
encyclopedia 22818
flank 22817
fingertips 22816
##pus 22815
delight 22814
teachings 22813
confirm 22812
roth 22811
beaches 22810
midway 22809
winters 22808
##iah 22807
teasing 22806
daytime 22805
beverly 22804
gambling 22803
bonnie 22802
##backs 22801
regulated 22800
clement 22799
hermann 22798
tricks 22797
knot 22796
##shing 22795
##uring 22794
##vre 22793
detached 22792
ecological 22791
owed 22790
specialty 22789
byron 22788
inventor 22787
bats 22786
stays 22785
screened 22784
unesco 22783
midland 22782
trim 22781
affection 22780
##ander 22779
##rry 22778
jess 22777
thoroughly 22776
feedback 22775
##uma 22774
chennai 22773
strained 22772
heartbeat 22771
wrapping 22770
overtime 22769
pleaded 22768
##sworth 22767
mon 22766
leisure 22765
oclc 22764
##tate 22763
##ele 22762
feathers 22761
angelo 22760
thirds 22759
nuts 22758
surveys 22757
clever 22756
gill 22755
commentator 22754
##dos 22753
darren 22752
rides 22751
gibraltar 22750
##nc 22749
##mu 22748
dissolution 22747
dedication 22746
shin 22745
meals 22744
saddle 22743
elvis 22742
reds 22741
chaired 22740
taller 22739
appreciation 22738
functioning 22737
niece 22736
favored 22735
advocacy 22734
robbie 22733
criminals 22732
suffolk 22731
yugoslav 22730
passport 22729
constable 22728
congressman 22727
hastings 22726
vera 22725
##rov 22724
consecrated 22723
sparks 22722
ecclesiastical 22721
confined 22720
##ovich 22719
muller 22718
floyd 22717
nora 22716
1822 22715
paved 22714
1827 22713
cumberland 22712
ned 22711
saga 22710
spiral 22709
##flow 22708
appreciated 22707
yi 22706
collaborative 22705
treating 22704
similarities 22703
feminine 22702
finishes 22701
##ib 22700
jade 22699
import 22698
##nse 22697
##hot 22696
champagne 22695
mice 22694
securing 22693
celebrities 22692
helsinki 22691
attributes 22690
##gos 22689
cousins 22688
phases 22687
ache 22686
lucia 22685
gandhi 22684
submission 22683
vicar 22682
spear 22681
shine 22680
tasmania 22679
biting 22678
detention 22677
constitute 22676
tighter 22675
seasonal 22674
##gus 22673
terrestrial 22672
matthews 22671
##oka 22670
effectiveness 22669
parody 22668
philharmonic 22667
##onic 22666
1816 22665
strangers 22664
encoded 22663
consortium 22662
guaranteed 22661
regards 22660
shifts 22659
tortured 22658
collision 22657
supervisor 22656
inform 22655
broader 22654
insight 22653
theaters 22652
armour 22651
emeritus 22650
blink 22649
incorporates 22648
mapping 22647
##50 22646
##ein 22645
handball 22644
flexible 22643
##nta 22642
substantially 22641
generous 22640
thief 22639
##own 22638
carr 22637
loses 22636
1793 22635
prose 22634
ucla 22633
romeo 22632
generic 22631
metallic 22630
realization 22629
damages 22628
mk 22627
commissioners 22626
zach 22625
default 22624
##ther 22623
helicopters 22622
lengthy 22621
stems 22620
spa 22619
partnered 22618
spectators 22617
rogue 22616
indication 22615
penalties 22614
teresa 22613
1801 22612
sen 22611
##tric 22610
dalton 22609
##wich 22608
irving 22607
photographic 22606
##vey 22605
dell 22604
deaf 22603
peters 22602
excluded 22601
unsure 22600
##vable 22599
patterson 22598
crawled 22597
##zio 22596
resided 22595
whipped 22594
latvia 22593
slower 22592
ecole 22591
pipes 22590
employers 22589
maharashtra 22588
comparable 22587
va 22586
textile 22585
pageant 22584
##gel 22583
alphabet 22582
binary 22581
irrigation 22580
chartered 22579
choked 22578
antoine 22577
offs 22576
waking 22575
supplement 22574
##wen 22573
quantities 22572
demolition 22571
regain 22570
locate 22569
urdu 22568
folks 22567
alt 22566
114 22565
##mc 22564
scary 22563
andreas 22562
whites 22561
##ava 22560
classrooms 22559
mw 22558
aesthetic 22557
publishes 22556
valleys 22555
guides 22554
cubs 22553
johannes 22552
bryant 22551
conventions 22550
affecting 22549
##itt 22548
drain 22547
awesome 22546
isolation 22545
prosecutor 22544
ambitious 22543
apology 22542
captive 22541
downs 22540
atmospheric 22539
lorenzo 22538
aisle 22537
beef 22536
foul 22535
##onia 22534
kidding 22533
composite 22532
disturbed 22531
illusion 22530
natives 22529
##ffer 22528
emi 22527
rockets 22526
riverside 22525
wartime 22524
painters 22523
adolf 22522
melted 22521
##ail 22520
uncertainty 22519
simulation 22518
hawks 22517
progressed 22516
meantime 22515
builder 22514
spray 22513
breach 22512
unhappy 22511
regina 22510
russians 22509
##urg 22508
determining 22507
##tation 22506
tram 22505
1806 22504
##quin 22503
aging 22502
##12 22501
1823 22500
garion 22499
rented 22498
mister 22497
diaz 22496
terminated 22495
clip 22494
1817 22493
depend 22492
nervously 22491
disco 22490
owe 22489
defenders 22488
shiva 22487
notorious 22486
disbelief 22485
shiny 22484
worcester 22483
##gation 22482
##yr 22481
trailing 22480
undertook 22479
islander 22478
belarus 22477
limitations 22476
watershed 22475
fuller 22474
overlooking 22473
utilized 22472
raphael 22471
1819 22470
synthetic 22469
breakdown 22468
klein 22467
##nate 22466
moaned 22465
memoir 22464
lamb 22463
practicing 22462
##erly 22461
cellular 22460
arrows 22459
exotic 22458
##graphy 22457
witches 22456
117 22455
charted 22454
rey 22453
hut 22452
hierarchy 22451
subdivision 22450
freshwater 22449
giuseppe 22448
aloud 22447
reyes 22446
qatar 22445
marty 22444
sideways 22443
utterly 22442
sexually 22441
jude 22440
prayers 22439
mccarthy 22438
softball 22437
blend 22436
damien 22435
##gging 22434
##metric 22433
wholly 22432
erupted 22431
lebanese 22430
negro 22429
revenues 22428
tasted 22427
comparative 22426
teamed 22425
transaction 22424
labeled 22423
maori 22422
sovereignty 22421
parkway 22420
trauma 22419
gran 22418
malay 22417
121 22416
advancement 22415
descendant 22414
2020 22413
buzz 22412
salvation 22411
inventory 22410
symbolic 22409
##making 22408
antarctica 22407
mps 22406
##gas 22405
##bro 22404
mohammed 22403
myanmar 22402
holt 22401
submarines 22400
tones 22399
##lman 22398
locker 22397
patriarch 22396
bangkok 22395
emerson 22394
remarks 22393
predators 22392
kin 22391
afghan 22390
confession 22389
norwich 22388
rental 22387
emerge 22386
advantages 22385
##zel 22384
rca 22383
##hold 22382
shortened 22381
storms 22380
aidan 22379
##matic 22378
autonomy 22377
compliance 22376
##quet 22375
dudley 22374
atp 22373
##osis 22372
1803 22371
motto 22370
documentation 22369
summary 22368
professors 22367
spectacular 22366
christina 22365
archdiocese 22364
flashing 22363
innocence 22362
remake 22361
##dell 22360
psychic 22359
reef 22358
scare 22357
employ 22356
rs 22355
sticks 22354
meg 22353
gus 22352
leans 22351
##ude 22350
accompany 22349
bergen 22348
tomas 22347
##iko 22346
doom 22345
wages 22344
pools 22343
##nch 22342
##bes 22341
breasts 22340
scholarly 22339
alison 22338
outline 22337
brittany 22336
breakthrough 22335
willis 22334
realistic 22333
##cut 22332
##boro 22331
competitor 22330
##stan 22329
pike 22328
picnic 22327
icon 22326
designing 22325
commercials 22324
washing 22323
villain 22322
skiing 22321
micro 22320
costumes 22319
auburn 22318
halted 22317
executives 22316
##hat 22315
logistics 22314
cycles 22313
vowel 22312
applicable 22311
barrett 22310
exclaimed 22309
eurovision 22308
eternity 22307
ramon 22306
##umi 22305
##lls 22304
modifications 22303
sweeping 22302
disgust 22301
##uck 22300
torch 22299
aviv 22298
ensuring 22297
rude 22296
dusty 22295
sonic 22294
donovan 22293
outskirts 22292
cu 22291
pathway 22290
##band 22289
##gun 22288
##lines 22287
disciplines 22286
acids 22285
cadet 22284
paired 22283
##40 22282
sketches 22281
##sive 22280
marriages 22279
##⁺ 22278
folding 22277
peers 22276
slovak 22275
implies 22274
admired 22273
##beck 22272
1880s 22271
leopold 22270
instinct 22269
attained 22268
weston 22267
megan 22266
horace 22265
##ination 22264
dorsal 22263
ingredients 22262
evolutionary 22261
##its 22260
complications 22259
deity 22258
lethal 22257
brushing 22256
levy 22255
deserted 22254
institutes 22253
posthumously 22252
delivering 22251
telescope 22250
coronation 22249
motivated 22248
rapids 22247
luc 22246
flicked 22245
pays 22244
volcano 22243
tanner 22242
weighed 22241
##nica 22240
crowds 22239
frankie 22238
gifted 22237
addressing 22236
granddaughter 22235
winding 22234
##rna 22233
constantine 22232
gomez 22231
##front 22230
landscapes 22229
rudolf 22228
anthropology 22227
slate 22226
werewolf 22225
##lio 22224
astronomy 22223
circa 22222
rouge 22221
dreaming 22220
sack 22219
knelt 22218
drowned 22217
naomi 22216
prolific 22215
tracked 22214
freezing 22213
herb 22212
##dium 22211
agony 22210
randall 22209
twisting 22208
wendy 22207
deposit 22206
touches 22205
vein 22204
wheeler 22203
##bbled 22202
##bor 22201
batted 22200
retaining 22199
tire 22198
presently 22197
compare 22196
specification 22195
daemon 22194
nigel 22193
##grave 22192
merry 22191
recommendation 22190
czechoslovakia 22189
sandra 22188
ng 22187
roma 22186
##sts 22185
lambert 22184
inheritance 22183
sheikh 22182
winchester 22181
cries 22180
examining 22179
##yle 22178
comeback 22177
cuisine 22176
nave 22175
##iv 22174
ko 22173
retrieve 22172
tomatoes 22171
barker 22170
polished 22169
defining 22168
irene 22167
lantern 22166
personalities 22165
begging 22164
tract 22163
swore 22162
1809 22161
175 22160
##gic 22159
omaha 22158
brotherhood 22157
##rley 22156
haiti 22155
##ots 22154
exeter 22153
##ete 22152
##zia 22151
steele 22150
dumb 22149
pearson 22148
210 22147
surveyed 22146
elisabeth 22145
trends 22144
##ef 22143
fritz 22142
##rf 22141
premium 22140
bugs 22139
fraction 22138
calmly 22137
viking 22136
##birds 22135
tug 22134
inserted 22133
unusually 22132
##ield 22131
confronted 22130
distress 22129
crashing 22128
brent 22127
turks 22126
resign 22125
##olo 22124
cambodia 22123
gabe 22122
sauce 22121
##kal 22120
evelyn 22119
116 22118
extant 22117
clusters 22116
quarry 22115
teenagers 22114
luna 22113
##lers 22112
##ister 22111
affiliation 22110
drill 22109
##ashi 22108
panthers 22107
scenic 22106
libya 22105
anita 22104
strengthen 22103
inscriptions 22102
##cated 22101
lace 22100
sued 22099
judith 22098
riots 22097
##uted 22096
mint 22095
##eta 22094
preparations 22093
midst 22092
dub 22091
challenger 22090
##vich 22089
mock 22088
cf 22087
displaced 22086
wicket 22085
breaths 22084
enables 22083
schmidt 22082
analyst 22081
##lum 22080
ag 22079
highlight 22078
automotive 22077
axe 22076
josef 22075
newark 22074
sufficiently 22073
resembles 22072
50th 22071
##pal 22070
flushed 22069
mum 22068
traits 22067
##ante 22066
commodore 22065
incomplete 22064
warming 22063
titular 22062
ceremonial 22061
ethical 22060
118 22059
celebrating 22058
eighteenth 22057
cao 22056
lima 22055
medalist 22054
mobility 22053
strips 22052
snakes 22051
##city 22050
miniature 22049
zagreb 22048
barton 22047
escapes 22046
umbrella 22045
automated 22044
doubted 22043
differs 22042
cooled 22041
georgetown 22040
dresden 22039
cooked 22038
fade 22037
wyatt 22036
rna 22035
jacobs 22034
carlton 22033
abundant 22032
stereo 22031
boost 22030
madras 22029
inning 22028
##hia 22027
spur 22026
ip 22025
malayalam 22024
begged 22023
osaka 22022
groan 22021
escaping 22020
charging 22019
dose 22018
vista 22017
##aj 22016
bud 22015
papa 22014
communists 22013
advocates 22012
edged 22011
tri 22010
##cent 22009
resemble 22008
peaking 22007
necklace 22006
fried 22005
montenegro 22004
saxony 22003
goose 22002
glances 22001
stuttgart 22000
curator 21999
recruit 21998
grocery 21997
sympathetic 21996
##tting 21995
##fort 21994
127 21993
lotus 21992
randolph 21991
ancestor 21990
##rand 21989
succeeding 21988
jupiter 21987
1798 21986
macedonian 21985
##heads 21984
hiking 21983
1808 21982
handing 21981
fischer 21980
##itive 21979
garbage 21978
node 21977
##pies 21976
prone 21975
singular 21974
papua 21973
inclined 21972
attractions 21971
italia 21970
pouring 21969
motioned 21968
grandma 21967
garnered 21966
jacksonville 21965
corp 21964
ego 21963
ringing 21962
aluminum 21961
##hausen 21960
ordering 21959
##foot 21958
drawer 21957
traders 21956
synagogue 21955
##play 21954
##kawa 21953
resistant 21952
wandering 21951
fragile 21950
fiona 21949
teased 21948
var 21947
hardcore 21946
soaked 21945
jubilee 21944
decisive 21943
exposition 21942
mercer 21941
poster 21940
valencia 21939
hale 21938
kuwait 21937
1811 21936
##ises 21935
##wr 21934
##eed 21933
tavern 21932
gamma 21931
122 21930
johan 21929
##uer 21928
airways 21927
amino 21926
gil 21925
##ury 21924
vocational 21923
domains 21922
torres 21921
##sp 21920
generator 21919
folklore 21918
outcomes 21917
##keeper 21916
canberra 21915
shooter 21914
fl 21913
beams 21912
confrontation 21911
##lling 21910
##gram 21909
feb 21908
aligned 21907
forestry 21906
pipeline 21905
jax 21904
motorway 21903
conception 21902
decay 21901
##tos 21900
coffin 21899
##cott 21898
stalin 21897
1805 21896
escorted 21895
minded 21894
##nam 21893
sitcom 21892
purchasing 21891
twilight 21890
veronica 21889
additions 21888
passive 21887
tensions 21886
straw 21885
123 21884
frequencies 21883
1804 21882
refugee 21881
cultivation 21880
##iate 21879
christie 21878
clary 21877
bulletin 21876
crept 21875
disposal 21874
##rich 21873
##zong 21872
processor 21871
crescent 21870
##rol 21869
bmw 21868
emphasized 21867
whale 21866
nazis 21865
aurora 21864
##eng 21863
dwelling 21862
hauled 21861
sponsors 21860
toledo 21859
mega 21858
ideology 21857
theatres 21856
tessa 21855
cerambycidae 21854
saves 21853
turtle 21852
cone 21851
suspects 21850
kara 21849
rusty 21848
yelling 21847
greeks 21846
mozart 21845
shades 21844
cocked 21843
participant 21842
##tro 21841
shire 21840
spit 21839
freeze 21838
necessity 21837
##cos 21836
inmates 21835
nielsen 21834
councillors 21833
loaned 21832
uncommon 21831
omar 21830
peasants 21829
botanical 21828
offspring 21827
daniels 21826
formations 21825
jokes 21824
1794 21823
pioneers 21822
sigma 21821
licensing 21820
##sus 21819
wheelchair 21818
polite 21817
1807 21816
liquor 21815
pratt 21814
trustee 21813
##uta 21812
forewings 21811
balloon 21810
##zz 21809
kilometre 21808
camping 21807
explicit 21806
casually 21805
shawn 21804
foolish 21803
teammates 21802
nm 21801
hassan 21800
carrie 21799
judged 21798
satisfy 21797
vanessa 21796
knives 21795
selective 21794
cnn 21793
flowed 21792
##lice 21791
eclipse 21790
stressed 21789
eliza 21788
mathematician 21787
cease 21786
cultivated 21785
##roy 21784
commissions 21783
browns 21782
##ania 21781
destroyers 21780
sheridan 21779
meadow 21778
##rius 21777
minerals 21776
##cial 21775
downstream 21774
clash 21773
gram 21772
memoirs 21771
ventures 21770
baha 21769
seymour 21768
archie 21767
midlands 21766
edith 21765
fare 21764
flynn 21763
invite 21762
canceled 21761
tiles 21760
stabbed 21759
boulder 21758
incorporate 21757
amended 21756
camden 21755
facial 21754
mollusk 21753
unreleased 21752
descriptions 21751
yoga 21750
grabs 21749
550 21748
raises 21747
ramp 21746
shiver 21745
##rose 21744
coined 21743
pioneering 21742
tunes 21741
qing 21740
warwick 21739
tops 21738
119 21737
melanie 21736
giles 21735
##rous 21734
wandered 21733
##inal 21732
annexed 21731
nov 21730
30th 21729
unnamed 21728
##ished 21727
organizational 21726
airplane 21725
normandy 21724
stoke 21723
whistle 21722
blessing 21721
violations 21720
chased 21719
holders 21718
shotgun 21717
##ctic 21716
outlet 21715
reactor 21714
##vik 21713
tires 21712
tearing 21711
shores 21710
fortified 21709
mascot 21708
constituencies 21707
nc 21706
columnist 21705
productive 21704
tibet 21703
##rta 21702
lineage 21701
hooked 21700
oct 21699
tapes 21698
judging 21697
cody 21696
##gger 21695
hansen 21694
kashmir 21693
triggered 21692
##eva 21691
solved 21690
cliffs 21689
##tree 21688
resisted 21687
anatomy 21686
protesters 21685
transparent 21684
implied 21683
##iga 21682
injection 21681
mattress 21680
excluding 21679
##mbo 21678
defenses 21677
helpless 21676
devotion 21675
##elli 21674
growl 21673
liberals 21672
weber 21671
phenomena 21670
atoms 21669
plug 21668
##iff 21667
mortality 21666
apprentice 21665
howe 21664
convincing 21663
aaa 21662
swimmer 21661
barber 21660
leone 21659
promptly 21658
sodium 21657
def 21656
nowadays 21655
arise 21654
##oning 21653
gloucester 21652
corrected 21651
dignity 21650
norm 21649
erie 21648
##ders 21647
elders 21646
evacuated 21645
sylvia 21644
compression 21643
##yar 21642
hartford 21641
pose 21640
backpack 21639
reasoning 21638
accepts 21637
24th 21636
wipe 21635
millimetres 21634
marcel 21633
##oda 21632
dodgers 21631
albion 21630
1790 21629
overwhelmed 21628
aerospace 21627
oaks 21626
1795 21625
showcase 21624
acknowledge 21623
recovering 21622
nolan 21621
ashe 21620
hurts 21619
geology 21618
fashioned 21617
disappearance 21616
farewell 21615
swollen 21614
shrug 21613
marquis 21612
wimbledon 21611
124 21610
rue 21609
1792 21608
commemorate 21607
reduces 21606
experiencing 21605
inevitable 21604
calcutta 21603
intel 21602
##court 21601
murderer 21600
sticking 21599
fisheries 21598
imagery 21597
bloom 21596
280 21595
brake 21594
##inus 21593
gustav 21592
hesitation 21591
memorable 21590
po 21589
viral 21588
beans 21587
accidents 21586
tunisia 21585
antenna 21584
spilled 21583
consort 21582
treatments 21581
aye 21580
perimeter 21579
##gard 21578
donation 21577
hostage 21576
migrated 21575
banker 21574
addiction 21573
apex 21572
lil 21571
trout 21570
##ously 21569
conscience 21568
##nova 21567
rams 21566
sands 21565
genome 21564
passionate 21563
troubles 21562
##lets 21561
##set 21560
amid 21559
##ibility 21558
##ret 21557
higgins 21556
exceed 21555
vikings 21554
##vie 21553
payne 21552
##zan 21551
muscular 21550
##ste 21549
defendant 21548
sucking 21547
##wal 21546
ibrahim 21545
fuselage 21544
claudia 21543
vfl 21542
europeans 21541
snails 21540
interval 21539
##garh 21538
preparatory 21537
statewide 21536
tasked 21535
lacrosse 21534
viktor 21533
##lation 21532
angola 21531
##hra 21530
flint 21529
implications 21528
employs 21527
teens 21526
patrons 21525
stall 21524
weekends 21523
barriers 21522
scrambled 21521
nucleus 21520
tehran 21519
jenna 21518
parsons 21517
lifelong 21516
robots 21515
displacement 21514
5000 21513
##bles 21512
precipitation 21511
##gt 21510
knuckles 21509
clutched 21508
1802 21507
marrying 21506
ecology 21505
marx 21504
accusations 21503
declare 21502
scars 21501
kolkata 21500
mat 21499
meadows 21498
bermuda 21497
skeleton 21496
finalists 21495
vintage 21494
crawl 21493
coordinate 21492
affects 21491
subjected 21490
orchestral 21489
mistaken 21488
##tc 21487
mirrors 21486
dipped 21485
relied 21484
260 21483
arches 21482
candle 21481
##nick 21480
incorporating 21479
wildly 21478
fond 21477
basilica 21476
owl 21475
fringe 21474
rituals 21473
whispering 21472
stirred 21471
feud 21470
tertiary 21469
slick 21468
goat 21467
honorable 21466
whereby 21465
skip 21464
ricardo 21463
stripes 21462
parachute 21461
adjoining 21460
submerged 21459
synthesizer 21458
##gren 21457
intend 21456
positively 21455
ninety 21454
phi 21453
beaver 21452
partition 21451
fellows 21450
alexis 21449
prohibition 21448
carlisle 21447
bizarre 21446
fraternity 21445
##bre 21444
doubts 21443
icy 21442
cbc 21441
aquatic 21440
sneak 21439
sonny 21438
combines 21437
airports 21436
crude 21435
supervised 21434
spatial 21433
merge 21432
alfonso 21431
##bic 21430
corrupt 21429
scan 21428
undergo 21427
##ams 21426
disabilities 21425
colombian 21424
comparing 21423
dolphins 21422
perkins 21421
##lish 21420
reprinted 21419
unanimous 21418
bounced 21417
hairs 21416
underworld 21415
midwest 21414
semester 21413
bucket 21412
paperback 21411
miniseries 21410
coventry 21409
demise 21408
##leigh 21407
demonstrations 21406
sensor 21405
rotating 21404
yan 21403
##hler 21402
arrange 21401
soils 21400
##idge 21399
hyderabad 21398
labs 21397
##dr 21396
brakes 21395
grandchildren 21394
##nde 21393
negotiated 21392
rover 21391
ferrari 21390
continuation 21389
directorate 21388
augusta 21387
stevenson 21386
counterpart 21385
gore 21384
##rda 21383
nursery 21382
rican 21381
ave 21380
collectively 21379
broadly 21378
pastoral 21377
repertoire 21376
asserted 21375
discovering 21374
nordic 21373
styled 21372
fiba 21371
cunningham 21370
harley 21369
middlesex 21368
survives 21367
tumor 21366
tempo 21365
zack 21364
aiming 21363
lok 21362
urgent 21361
##rade 21360
##nto 21359
devils 21358
##ement 21357
contractor 21356
turin 21355
##wl 21354
##ool 21353
bliss 21352
repaired 21351
simmons 21350
moan 21349
astronomical 21348
cr 21347
negotiate 21346
lyric 21345
1890s 21344
lara 21343
bred 21342
clad 21341
angus 21340
pbs 21339
##ience 21338
engineered 21337
posed 21336
##lk 21335
hernandez 21334
possessions 21333
elbows 21332
psychiatric 21331
strokes 21330
confluence 21329
electorate 21328
lifts 21327
campuses 21326
lava 21325
alps 21324
##ep 21323
##ution 21322
##date 21321
physicist 21320
woody 21319
##page 21318
##ographic 21317
##itis 21316
juliet 21315
reformation 21314
sparhawk 21313
320 21312
complement 21311
suppressed 21310
jewel 21309
##½ 21308
floated 21307
##kas 21306
continuity 21305
sadly 21304
##ische 21303
inability 21302
melting 21301
scanning 21300
paula 21299
flour 21298
judaism 21297
safer 21296
vague 21295
##lm 21294
solving 21293
curb 21292
##stown 21291
financially 21290
gable 21289
bees 21288
expired 21287
miserable 21286
cassidy 21285
dominion 21284
1789 21283
cupped 21282
145 21281
robbery 21280
facto 21279
amos 21278
warden 21277
resume 21276
tallest 21275
marvin 21274
ing 21273
pounded 21272
usd 21271
declaring 21270
gasoline 21269
##aux 21268
darkened 21267
270 21266
650 21265
sophomore 21264
##mere 21263
erection 21262
gossip 21261
televised 21260
risen 21259
dial 21258
##eu 21257
pillars 21256
##link 21255
passages 21254
profound 21253
##tina 21252
arabian 21251
ashton 21250
silicon 21249
nail 21248
##ead 21247
##lated 21246
##wer 21245
##hardt 21244
fleming 21243
firearms 21242
ducked 21241
circuits 21240
blows 21239
waterloo 21238
titans 21237
##lina 21236
atom 21235
fireplace 21234
cheshire 21233
financed 21232
activation 21231
algorithms 21230
##zzi 21229
constituent 21228
catcher 21227
cherokee 21226
partnerships 21225
sexuality 21224
platoon 21223
tragic 21222
vivian 21221
guarded 21220
whiskey 21219
meditation 21218
poetic 21217
##late 21216
##nga 21215
##ake 21214
porto 21213
listeners 21212
dominance 21211
kendra 21210
mona 21209
chandler 21208
factions 21207
22nd 21206
salisbury 21205
attitudes 21204
derivative 21203
##ido 21202
##haus 21201
intake 21200
paced 21199
javier 21198
illustrator 21197
barrels 21196
bias 21195
cockpit 21194
burnett 21193
dreamed 21192
ensuing 21191
##anda 21190
receptors 21189
someday 21188
hawkins 21187
mattered 21186
##lal 21185
slavic 21184
1799 21183
jesuit 21182
cameroon 21181
wasted 21180
tai 21179
wax 21178
lowering 21177
victorious 21176
freaking 21175
outright 21174
hancock 21173
librarian 21172
sensing 21171
bald 21170
calcium 21169
myers 21168
tablet 21167
announcing 21166
barack 21165
shipyard 21164
pharmaceutical 21163
##uan 21162
greenwich 21161
flush 21160
medley 21159
patches 21158
wolfgang 21157
pt 21156
speeches 21155
acquiring 21154
exams 21153
nikolai 21152
##gg 21151
hayden 21150
kannada 21149
##type 21148
reilly 21147
##pt 21146
waitress 21145
abdomen 21144
devastated 21143
capped 21142
pseudonym 21141
pharmacy 21140
fulfill 21139
paraguay 21138
1796 21137
clicked 21136
##trom 21135
archipelago 21134
syndicated 21133
##hman 21132
lumber 21131
orgasm 21130
rejection 21129
clifford 21128
lorraine 21127
advent 21126
mafia 21125
rodney 21124
brock 21123
##ght 21122
##used 21121
##elia 21120
cassette 21119
chamberlain 21118
despair 21117
mongolia 21116
sensors 21115
developmental 21114
upstream 21113
##eg 21112
##alis 21111
spanning 21110
165 21109
trombone 21108
basque 21107
seeded 21106
interred 21105
renewable 21104
rhys 21103
leapt 21102
revision 21101
molecule 21100
##ages 21099
chord 21098
vicious 21097
nord 21096
shivered 21095
23rd 21094
arlington 21093
debts 21092
corpus 21091
sunrise 21090
bays 21089
blackburn 21088
centimetres 21087
##uded 21086
shuddered 21085
gm 21084
strangely 21083
gripping 21082
cartoons 21081
isabelle 21080
orbital 21079
##ppa 21078
seals 21077
proving 21076
##lton 21075
refusal 21074
strengthened 21073
bust 21072
assisting 21071
baghdad 21070
batsman 21069
portrayal 21068
mara 21067
pushes 21066
spears 21065
og 21064
##cock 21063
reside 21062
nathaniel 21061
brennan 21060
1776 21059
confirmation 21058
caucus 21057
##worthy 21056
markings 21055
yemen 21054
nobles 21053
ku 21052
lazy 21051
viewer 21050
catalan 21049
encompasses 21048
sawyer 21047
##fall 21046
sparked 21045
substances 21044
patents 21043
braves 21042
arranger 21041
evacuation 21040
sergio 21039
persuade 21038
dover 21037
tolerance 21036
penguin 21035
cum 21034
jockey 21033
insufficient 21032
townships 21031
occupying 21030
declining 21029
plural 21028
processed 21027
projection 21026
puppet 21025
flanders 21024
introduces 21023
liability 21022
##yon 21021
gymnastics 21020
antwerp 21019
taipei 21018
hobart 21017
candles 21016
jeep 21015
wes 21014
observers 21013
126 21012
chaplain 21011
bundle 21010
glorious 21009
##hine 21008
hazel 21007
flung 21006
sol 21005
excavations 21004
dumped 21003
stares 21002
sh 21001
bangalore 21000
triangular 20999
icelandic 20998
intervals 20997
expressing 20996
turbine 20995
##vers 20994
songwriting 20993
crafts 20992
##igo 20991
jasmine 20990
ditch 20989
rite 20988
##ways 20987
entertaining 20986
comply 20985
sorrow 20984
wrestlers 20983
basel 20982
emirates 20981
marian 20980
rivera 20979
helpful 20978
##some 20977
caution 20976
downward 20975
networking 20974
##atory 20973
##tered 20972
darted 20971
genocide 20970
emergence 20969
replies 20968
specializing 20967
spokesman 20966
convenient 20965
unlocked 20964
fading 20963
augustine 20962
concentrations 20961
resemblance 20960
elijah 20959
investigator 20958
andhra 20957
##uda 20956
promotes 20955
bean 20954
##rrell 20953
fleeing 20952
wan 20951
simone 20950
announcer 20949
##ame 20948
##bby 20947
lydia 20946
weaver 20945
132 20944
residency 20943
modification 20942
##fest 20941
stretches 20940
##ast 20939
alternatively 20938
nat 20937
lowe 20936
lacks 20935
##ented 20934
pam 20933
tile 20932
concealed 20931
inferior 20930
abdullah 20929
residences 20928
tissues 20927
vengeance 20926
##ided 20925
moisture 20924
peculiar 20923
groove 20922
zip 20921
bologna 20920
jennings 20919
ninja 20918
oversaw 20917
zombies 20916
pumping 20915
batch 20914
livingston 20913
emerald 20912
installations 20911
1797 20910
peel 20909
nitrogen 20908
rama 20907
##fying 20906
##star 20905
schooling 20904
strands 20903
responding 20902
werner 20901
##ost 20900
lime 20899
casa 20898
accurately 20897
targeting 20896
##rod 20895
underway 20894
##uru 20893
hemisphere 20892
lester 20891
##yard 20890
occupies 20889
2d 20888
griffith 20887
angrily 20886
reorganized 20885
##owing 20884
courtney 20883
deposited 20882
##dd 20881
##30 20880
estadio 20879
##ifies 20878
dunn 20877
exiled 20876
##ying 20875
checks 20874
##combe 20873
##о 20872
##fly 20871
successes 20870
unexpectedly 20869
blu 20868
assessed 20867
##flower 20866
##ه 20865
observing 20864
sacked 20863
spiders 20862
kn 20861
##tail 20860
mu 20859
nodes 20858
prosperity 20857
audrey 20856
divisional 20855
155 20854
broncos 20853
tangled 20852
adjust 20851
feeds 20850
erosion 20849
paolo 20848
surf 20847
directory 20846
snatched 20845
humid 20844
admiralty 20843
screwed 20842
gt 20841
reddish 20840
##nese 20839
modules 20838
trench 20837
lamps 20836
bind 20835
leah 20834
bucks 20833
competes 20832
##nz 20831
##form 20830
transcription 20829
##uc 20828
isles 20827
violently 20826
clutching 20825
pga 20824
cyclist 20823
inflation 20822
flats 20821
ragged 20820
unnecessary 20819
##hian 20818
stubborn 20817
coordinated 20816
harriet 20815
baba 20814
disqualified 20813
330 20812
insect 20811
wolfe 20810
##fies 20809
reinforcements 20808
rocked 20807
duel 20806
winked 20805
embraced 20804
bricks 20803
##raj 20802
hiatus 20801
defeats 20800
pending 20799
brightly 20798
jealousy 20797
##xton 20796
##hm 20795
##uki 20794
lena 20793
gdp 20792
colorful 20791
##dley 20790
stein 20789
kidney 20788
##shu 20787
underwear 20786
wanderers 20785
##haw 20784
##icus 20783
guardians 20782
m³ 20781
roared 20780
habits 20779
##wise 20778
permits 20777
gp 20776
uranium 20775
punished 20774
disguise 20773
bundesliga 20772
elise 20771
dundee 20770
erotic 20769
partisan 20768
pi 20767
collectors 20766
float 20765
individually 20764
rendering 20763
behavioral 20762
bucharest 20761
ser 20760
hare 20759
valerie 20758
corporal 20757
nutrition 20756
proportional 20755
##isa 20754
immense 20753
##kis 20752
pavement 20751
##zie 20750
##eld 20749
sutherland 20748
crouched 20747
1775 20746
##lp 20745
suzuki 20744
trades 20743
endurance 20742
operas 20741
crosby 20740
prayed 20739
priory 20738
rory 20737
socially 20736
##urn 20735
gujarat 20734
##pu 20733
walton 20732
cube 20731
pasha 20730
privilege 20729
lennon 20728
floods 20727
thorne 20726
waterfall 20725
nipple 20724
scouting 20723
approve 20722
##lov 20721
minorities 20720
voter 20719
dwight 20718
extensions 20717
assure 20716
ballroom 20715
slap 20714
dripping 20713
privileges 20712
rejoined 20711
confessed 20710
demonstrating 20709
patriotic 20708
yell 20707
investor 20706
##uth 20705
pagan 20704
slumped 20703
squares 20702
##cle 20701
##kins 20700
confront 20699
bert 20698
embarrassment 20697
##aid 20696
aston 20695
urging 20694
sweater 20693
starr 20692
yuri 20691
brains 20690
williamson 20689
commuter 20688
mortar 20687
structured 20686
selfish 20685
exports 20684
##jon 20683
cds 20682
##him 20681
unfinished 20680
##rre 20679
mortgage 20678
destinations 20677
##nagar 20676
canoe 20675
solitary 20674
buchanan 20673
delays 20672
magistrate 20671
fk 20670
##pling 20669
motivation 20668
##lier 20667
##vier 20666
recruiting 20665
assess 20664
##mouth 20663
malik 20662
antique 20661
1791 20660
pius 20659
rahman 20658
reich 20657
tub 20656
zhou 20655
smashed 20654
airs 20653
galway 20652
xii 20651
conditioning 20650
honduras 20649
discharged 20648
dexter 20647
##pf 20646
lionel 20645
129 20644
debates 20643
lemon 20642
tiffany 20641
volunteered 20640
dom 20639
dioxide 20638
procession 20637
devi 20636
sic 20635
tremendous 20634
advertisements 20633
colts 20632
transferring 20631
verdict 20630
hanover 20629
decommissioned 20628
utter 20627
relate 20626
pac 20625
racism 20624
##top 20623
beacon 20622
limp 20621
similarity 20620
terra 20619
occurrence 20618
ant 20617
##how 20616
becky 20615
capt 20614
updates 20613
armament 20612
richie 20611
pal 20610
##graph 20609
halloween 20608
mayo 20607
##ssen 20606
##bone 20605
cara 20604
serena 20603
fcc 20602
dolls 20601
obligations 20600
##dling 20599
violated 20598
lafayette 20597
jakarta 20596
exploitation 20595
##ime 20594
infamous 20593
iconic 20592
##lah 20591
##park 20590
kitty 20589
moody 20588
reginald 20587
dread 20586
spill 20585
crystals 20584
olivier 20583
modeled 20582
bluff 20581
equilibrium 20580
separating 20579
notices 20578
ordnance 20577
extinction 20576
onset 20575
cosmic 20574
attachment 20573
sammy 20572
expose 20571
privy 20570
anchored 20569
##bil 20568
abbott 20567
admits 20566
bending 20565
baritone 20564
emmanuel 20563
policeman 20562
vaughan 20561
winged 20560
climax 20559
dresses 20558
denny 20557
polytechnic 20556
mohamed 20555
burmese 20554
authentic 20553
nikki 20552
genetics 20551
grandparents 20550
homestead 20549
gaza 20548
postponed 20547
metacritic 20546
una 20545
##sby 20544
##bat 20543
unstable 20542
dissertation 20541
##rial 20540
##cian 20539
curls 20538
obscure 20537
uncovered 20536
bronx 20535
praying 20534
disappearing 20533
##hoe 20532
prehistoric 20531
coke 20530
turret 20529
mutations 20528
nonprofit 20527
pits 20526
monaco 20525
##ي 20524
##usion 20523
prominently 20522
dispatched 20521
podium 20520
##mir 20519
uci 20518
##uation 20517
133 20516
fortifications 20515
birthplace 20514
kendall 20513
##lby 20512
##oll 20511
preacher 20510
rack 20509
goodman 20508
##rman 20507
persistent 20506
##ott 20505
countless 20504
jaime 20503
recorder 20502
lexington 20501
persecution 20500
jumps 20499
renewal 20498
wagons 20497
##11 20496
crushing 20495
##holder 20494
decorations 20493
##lake 20492
abundance 20491
wrath 20490
laundry 20489
£1 20488
garde 20487
##rp 20486
jeanne 20485
beetles 20484
peasant 20483
##sl 20482
splitting 20481
caste 20480
sergei 20479
##rer 20478
##ema 20477
scripts 20476
##ively 20475
rub 20474
satellites 20473
##vor 20472
inscribed 20471
verlag 20470
scrapped 20469
gale 20468
packages 20467
chick 20466
potato 20465
slogan 20464
kathleen 20463
arabs 20462
##culture 20461
counterparts 20460
reminiscent 20459
choral 20458
##tead 20457
rand 20456
retains 20455
bushes 20454
dane 20453
accomplish 20452
courtesy 20451
closes 20450
##oth 20449
slaughter 20448
hague 20447
krakow 20446
lawson 20445
tailed 20444
elias 20443
ginger 20442
##ttes 20441
canopy 20440
betrayal 20439
rebuilding 20438
turf 20437
##hof 20436
frowning 20435
allegiance 20434
brigades 20433
kicks 20432
rebuild 20431
polls 20430
alias 20429
nationalism 20428
td 20427
rowan 20426
audition 20425
bowie 20424
fortunately 20423
recognizes 20422
harp 20421
dillon 20420
horrified 20419
##oro 20418
renault 20417
##tics 20416
ropes 20415
##α 20414
presumed 20413
rewarded 20412
infrared 20411
wiping 20410
accelerated 20409
illustration 20408
##rid 20407
presses 20406
practitioners 20405
badminton 20404
##iard 20403
detained 20402
##tera 20401
recognizing 20400
relates 20399
misery 20398
##sies 20397
##tly 20396
reproduction 20395
piercing 20394
potatoes 20393
thornton 20392
esther 20391
manners 20390
hbo 20389
##aan 20388
ours 20387
bullshit 20386
ernie 20385
perennial 20384
sensitivity 20383
illuminated 20382
rupert 20381
##jin 20380
##iss 20379
##ear 20378
rfc 20377
nassau 20376
##dock 20375
staggered 20374
socialism 20373
##haven 20372
appointments 20371
nonsense 20370
prestige 20369
sharma 20368
haul 20367
##tical 20366
solidarity 20365
gps 20364
##ook 20363
##rata 20362
igor 20361
pedestrian 20360
##uit 20359
baxter 20358
tenants 20357
wires 20356
medication 20355
unlimited 20354
guiding 20353
impacts 20352
diabetes 20351
##rama 20350
sasha 20349
pas 20348
clive 20347
extraction 20346
131 20345
continually 20344
constraints 20343
##bilities 20342
sonata 20341
hunted 20340
sixteenth 20339
chu 20338
planting 20337
quote 20336
mayer 20335
pretended 20334
abs 20333
spat 20332
##hua 20331
ceramic 20330
##cci 20329
curtains 20328
pigs 20327
pitching 20326
##dad 20325
latvian 20324
sore 20323
dayton 20322
##sted 20321
##qi 20320
patrols 20319
slice 20318
playground 20317
##nted 20316
shone 20315
stool 20314
apparatus 20313
inadequate 20312
mates 20311
treason 20310
##ija 20309
desires 20308
##liga 20307
##croft 20306
somalia 20305
laurent 20304
mir 20303
leonardo 20302
oracle 20301
grape 20300
obliged 20299
chevrolet 20298
thirteenth 20297
stunning 20296
enthusiastic 20295
##ede 20294
accounted 20293
concludes 20292
currents 20291
basil 20290
##kovic 20289
drought 20288
##rica 20287
mai 20286
##aire 20285
shove 20284
posting 20283
##shed 20282
pilgrimage 20281
humorous 20280
packing 20279
fry 20278
pencil 20277
wines 20276
smells 20275
144 20274
marilyn 20273
aching 20272
newest 20271
clung 20270
bon 20269
neighbours 20268
sanctioned 20267
##pie 20266
mug 20265
##stock 20264
drowning 20263
##mma 20262
hydraulic 20261
##vil 20260
hiring 20259
reminder 20258
lilly 20257
investigators 20256
##ncies 20255
sour 20254
##eous 20253
compulsory 20252
packet 20251
##rion 20250
##graphic 20249
##elle 20248
cannes 20247
##inate 20246
depressed 20245
##rit 20244
heroic 20243
importantly 20242
theresa 20241
##tled 20240
conway 20239
saturn 20238
marginal 20237
rae 20236
##xia 20235
corresponds 20234
royce 20233
pact 20232
jasper 20231
explosives 20230
packaging 20229
aluminium 20228
##ttered 20227
denotes 20226
rhythmic 20225
spans 20224
assignments 20223
hereditary 20222
outlined 20221
originating 20220
sundays 20219
lad 20218
reissued 20217
greeting 20216
beatrice 20215
##dic 20214
pillar 20213
marcos 20212
plots 20211
handbook 20210
alcoholic 20209
judiciary 20208
avant 20207
slides 20206
extract 20205
masculine 20204
blur 20203
##eum 20202
##force 20201
homage 20200
trembled 20199
owens 20198
hymn 20197
trey 20196
omega 20195
signaling 20194
socks 20193
accumulated 20192
reacted 20191
attic 20190
theo 20189
lining 20188
angie 20187
distraction 20186
primera 20185
talbot 20184
##key 20183
1200 20182
ti 20181
creativity 20180
billed 20179
##hey 20178
deacon 20177
eduardo 20176
identifies 20175
proposition 20174
dizzy 20173
gunner 20172
hogan 20171
##yam 20170
##pping 20169
##hol 20168
ja 20167
##chan 20166
jensen 20165
reconstructed 20164
##berger 20163
clearance 20162
darius 20161
##nier 20160
abe 20159
harlem 20158
plea 20157
dei 20156
circled 20155
emotionally 20154
notation 20153
fascist 20152
neville 20151
exceeded 20150
upwards 20149
viable 20148
ducks 20147
##fo 20146
workforce 20145
racer 20144
limiting 20143
shri 20142
##lson 20141
possesses 20140
1600 20139
kerr 20138
moths 20137
devastating 20136
laden 20135
disturbing 20134
locking 20133
##cture 20132
gal 20131
fearing 20130
accreditation 20129
flavor 20128
aide 20127
1870s 20126
mountainous 20125
##baum 20124
melt 20123
##ures 20122
motel 20121
texture 20120
servers 20119
soda 20118
##mb 20117
herd 20116
##nium 20115
erect 20114
puzzled 20113
hum 20112
peggy 20111
examinations 20110
gould 20109
testified 20108
geoff 20107
ren 20106
devised 20105
sacks 20104
##law 20103
denial 20102
posters 20101
grunted 20100
cesar 20099
tutor 20098
ec 20097
gerry 20096
offerings 20095
byrne 20094
falcons 20093
combinations 20092
ct 20091
incoming 20090
pardon 20089
rocking 20088
26th 20087
avengers 20086
flared 20085
mankind 20084
seller 20083
uttar 20082
loch 20081
nadia 20080
stroking 20079
exposing 20078
##hd 20077
fertile 20076
ancestral 20075
instituted 20074
[...]
